[PAD]
[UNK]
[START]
[END]
!
"
#
$
%
&
'
(
)
*
+
,
-
.
/
0
1
2
3
4
5
6
7
8
9
:
;
<
=
>
?
@
[
\
]
^
`
a
b
c
d
e
f
g
h
i
j
k
l
m
n
o
p
q
r
s
t
u
v
w
x
y
z
{
|
}
~
¡
£
¥
§
©
«
¬
®
°
±
¶
·
»
¿
×
æ
ð
÷
ø
þ
đ
ħ
ı
ł
ŋ
œ
ƒ
ǀ
ǁ
ǂ
ǃ
ǝ
ɑ
ɒ
ɔ
ə
ɛ
ɜ
ɡ
ɣ
ɨ
ɪ
ɯ
ɲ
ʃ
ʊ
ʌ
ʒ
ʔ
ʻ
ʼ
ʾ
ʿ
ˀ
ˈ
ˌ
ː
˥
˦
˧
˨
˩
α
β
γ
δ
ε
ζ
η
θ
ι
κ
λ
μ
ν
ξ
ο
π
ρ
σ
τ
υ
φ
χ
ψ
ω
а
б
в
г
д
е
ж
з
и
к
л
м
н
о
п
р
с
т
у
ф
х
ц
ч
ш
щ
ъ
ы
ь
э
ю
я
і
қ
א
ב
ג
ד
ה
ו
ז
ח
י
כ
ל
ם
מ
ן
נ
ס
ע
ק
ר
ש
ת
ء
ا
ب
ة
ت
ث
ج
ح
خ
د
ذ
ر
ز
س
ش
ص
ض
ط
ع
غ
ـ
ف
ق
ك
ل
م
ن
ه
و
ى
ي
پ
ک
ی
ܐ
क
ग
ज
ड
त
द
न
प
ब
भ
म
य
र
ल
व
स
ह
ा
ि
ी
ो
ক
ট
দ
ব
য
র
ল
স
া
ি
ে
৳
ා
ก
ข
ค
ง
จ
ช
ด
ต
ท
ธ
น
บ
ป
พ
ฟ
ภ
ม
ย
ร
ล
ว
ส
ห
อ
ะ
า
เ
แ
โ
ไ
་
င
တ
မ
ာ
ေ
း
ᄀ
ᄁ
ᄂ
ᄃ
ᄄ
ᄅ
ᄆ
ᄇ
ᄈ
ᄉ
ᄊ
ᄋ
ᄌ
ᄍ
ᄎ
ᄏ
ᄐ
ᄑ
ᄒ
ᅡ
ᅢ
ᅣ
ᅥ
ᅦ
ᅧ
ᅨ
ᅩ
ᅪ
ᅬ
ᅭ
ᅮ
ᅯ
ᅱ
ᅲ
ᅳ
ᅴ
ᅵ
ᆨ
ᆫ
ᆯ
ᆷ
ᆸ
ᆺ
ᆻ
ᆼ
ᇀ
ᵻ
‐
–
―
‘
„
‟
†
‡
•
‰
′
‹
›
⁄
⁝
€
₹
℞
←
→
↓
↵
↹
⇧
⇩
∀
∂
∅
∆
∇
∈
∏
∑
−
∓
∗
∘
√
∞
∣
∥
∧
∨
∪
∼
≈
≡
≤
≥
⊂
⊆
⊕
⊙
⊞
⋅
⋮
⋯
⌘
⌥
⎙
⏎
■
□
▼
◌
●
◦
☃
☆
☉
☰
☺
♠
♥
♪
♭
♯
⚙
✓
✔
⟨
⟩
、
」
あ
い
う
え
お
か
き
く
け
こ
さ
し
す
そ
た
ち
つ
て
と
な
に
の
は
ひ
ふ
ほ
ま
み
め
も
ゃ
や
ら
り
る
ろ
わ
を
ん
ァ
ア
ィ
イ
ウ
ェ
エ
ォ
オ
カ
キ
ク
ケ
コ
サ
シ
ス
セ
ソ
タ
チ
ッ
ツ
テ
ト
ナ
ニ
ヌ
ネ
ノ
ハ
ヒ
フ
ヘ
ホ
マ
ミ
ム
メ
モ
ャ
ヤ
ュ
ユ
ョ
ラ
リ
ル
レ
ロ
ワ
ン
・
ー
一
七
三
上
下
不
世
东
中
主
丼
久
之
乐
九
也
事
二
云
五
井
京
人
仁
代
令
仮
任
份
伊
会
伟
传
位
佐
何
佛
作
你
佳
俊
保
信
倍
偏
元
兄
先
光
党
入
全
八
公
六
关
兵
内
军
出
分
初
判
利
制
前
力
動
勝
化
北
十
千
华
南
博
原
友
受
古
可
台
史
号
司
吃
合
吉
名
后
向
君
吳
周
味
命
和
品
唐
喜
嘉
四
回
团
国
國
圍
園
土
在
地
场
坂
垣
城
堂
場
士
夏
夕
外
多
夜
大
天
太
夫
央
奇
女
好
如
姜
姫
娘
娱
婚
子
字
学
孫
學
宅
守
安
宋
宗
官
定
宝
実
室
宮
家
宿
密
察
寺
寿
将
小
少
尚
尾
屋
山
峇
峰
島
崎
川
州
工
布
帝
師
常
干
平
年
府
廠
建
式
张
張
強
彦
影
役
御
徳
德
心
志
忠
思
恋
情
想
惹
愛
成
我
战
戦
所
手
技
放
政
教
文
新
方
族
日
早
昊
明
星
春
是
時
普
智
暨
書
最
會
月
有
服
朝
木
未
本
朱
机
李
村
条
東
林
校
株
桐
桑
梦
棋
棒
森
業
楽
横
機
次
欧
歌
正
武
死
母
氏
民
水
永
汁
求
江
池
沙
河
油
法
波
洋
津
派
流
浦
浩
海
清
温
港
源
漢
潜
瀬
火
炊
無
焼
煮
爱
物
特
玉
王
球
理
生
田
由
电
男
画
界
白
百
的
皇
盛
目
直
相
省
真
眼
知
石
社
神
福
科
空
立
端
竹
第
精
結
統
絵
編
红
级
美
義
老
者
自
航
艇
艦
良
色
艾
花
若
英
茶
草
菜
華
萬
藍
藤
虎
行
術
街
衣
袁
西
見
親
视
言
記
話
語
记
谢
谷
豆
豪
賢
赤
赵
起
超
路
身
軍
輝
车
辰
迷
送
通
速
進
遊
運
道
選
郎
郡
部
都
酒
里
重
野
金
鍋
長
长
門
阿
陈
限
院
陳
陸
陽
隊
雄
集
雪
雲
雷
青
非
面
韓
音
風
风
飛
食
飯
餡
香
馬
马
高
鬼
魔
鳥
麻
黃
龍
￼
�
𒀭
co
va
la
cua
toi
mot
khong
ban
the
trong
đuoc
đo
nhung
đa
cac
cho
nguoi
anh
voi
đe
chung
tu
ta
nay
se
su
khi
nam
lam
noi
con
đau
vao
ve
cung
no
ra
vi
nhu
thu
đen
đay
phai
ho
đong
dung
moi
đoi
chi
so
cau
đang
bo
thay
lai
nhan
biet
bao
qua
quan
ma
tai
hon
đieu
ong
ca
viec
gi
cong
can
đi
bi
thanh
thuc
tinh
neu
gia
van
chuyen
hay
ngay
phan
sau
mat
minh
thi
hoac
nha
hoi
khac
tren
nhieu
thoi
nhat
roi
cach
thuong
rang
bat
thang
nao
bang
ba
chinh
em
an
nen
chu
cai
muon
tien
nghi
tro
ay
hoc
vay
đinh
hai
sao
du
thong
hien
tuong
hoa
cam
may
trung
ky
tri
to
lan
hop
cu
theo
đung
nuoc
ke
dan
han
gio
rat
tim
san
vien
truong
loi
nang
hanh
tao
gian
truoc
chua
luc
đat
tam
phat
hieu
quoc
tin
do
than
hang
boi
song
tay
loai
thuoc
cuoc
nho
len
hinh
mo
phu
đai
sinh
te
that
nghe
ly
ket
cao
tham
phong
yeu
gioi
tap
đua
vu
toan
he
giai
giup
bien
nua
tat
goi
ngoai
tiep
lien
sang
trinh
trang
bac
tot
mau
cap
luong
ai
tac
vo
trai
lon
vai
tang
khoi
huong
chat
thich
canh
me
cuoi
chan
đuong
tra
bay
tieu
tieng
giao
xuat
ten
pham
muc
dien
kinh
nhau
lap
phap
le
mang
kiem
ben
ung
vat
nhien
giam
xa
đien
ngu
si
xem
lieu
quyen
lo
tranh
benh
đao
bai
kho
thiet
pho
xay
chau
khu
cuu
gan
danh
gap
be
chien
điem
choi
sach
che
chon
đon
nhin
mua
##s
binh
am
nu
mac
kien
viet
khoang
tuc
đoan
chuc
kha
chang
phuong
phia
hoan
het
gay
tan
đoc
tung
vong
phuc
ngoi
chong
giong
chet
gom
ngan
sat
hoat
tuy
nhiem
nguyen
##a
nghia
lay
manh
đeu
tre
đia
khien
đac
nhac
tho
nghiem
bon
đam
xuong
toc
duoi
dau
quy
day
de
them
thuat
truyen
xe
on
phi
ton
my
dang
trien
cay
ha
lang
long
lanh
xac
thai
chay
đanh
da
giu
ty
tich
##e
giua
ro
nghiep
mai
cham
dich
chac
it
quyet
vuc
hat
cha
tong
nghien
cuc
thien
hau
di
cang
tuoi
suc
khoa
tru
tran
buoc
nhap
truc
luon
vua
trieu
dai
phim
bong
lua
vung
xu
ngon
uong
đem
gai
nhanh
xin
nhom
kich
tuyen
##o
đan
giac
đu
thieu
10
phep
lau
chuong
thoai
giet
ngai
tuan
bieu
quay
thap
duong
chiec
man
pha
nhe
đuc
nong
##i
luat
troi
thua
giay
mong
rong
tuyet
suy
vang
duy
hoang
khan
ap
toa
ao
sung
##n
mon
gang
lich
coi
lac
luu
quen
nguon
chia
cat
chiu
thao
linh
##t
kia
luan
duc
xuc
chut
vui
##y
huu
keo
quanh
tiet
goc
rieng
phut
chuan
##l
ghi
tron
khoe
huy
lop
doi
hom
đep
khach
xung
##r
quang
thuyet
mien
chieu
xet
kem
niem
buc
sap
ki
khai
phien
đot
sua
buoi
tau
nham
hiem
đap
nguy
vet
tram
hung
muoi
nhiet
đich
dua
hong
trao
hoach
khoan
doanh
chap
mui
12
##d
au
ich
sac
soat
nan
kieu
000
phe
mieng
ga
khang
cuong
sai
20
cuon
khau
ham
ngo
thuan
phoi
gui
banh
khung
thuy
bau
nhi
##h
##k
lao
xuyen
bot
ngua
buon
meo
vuong
11
nhay
vuot
dong
tiem
##m
mach
hut
rua
xep
loan
suot
tui
uoc
hy
go
nga
kim
uy
soc
luyen
chao
30
khuyen
hiep
sot
bua
soi
tha
##g
xau
đuoi
15
som
trach
##u
##in
oi
dam
thoa
lung
thoat
##er
uc
xanh
ruou
kham
##c
moc
coc
##on
hao
giau
lenh
thue
thit
in
ngung
nguoc
mi
ti
xo
hap
hen
new
gianh
dinh
tiec
chim
thach
viem
bung
xong
ngam
rung
nganh
mem
yen
nuoi
rac
met
##p
100
rut
nien
huyet
19
chiem
ghe
video
##an
sieu
khap
##ia
##b
##z
khuan
luoi
li
nui
rap
cot
xam
truy
vinh
of
giang
nau
suat
2016
xoa
##us
nguc
re
loat
luoc
von
dao
50
chuot
lu
gop
khao
mu
##0
km
2011
rau
web
nut
phau
2015
phieu
2012
chup
2017
2014
boc
chai
18
mung
##2
16
##ra
liet
al
bam
loc
axit
##x
2010
quai
diet
##la
25
13
14
tom
doa
non
thinh
2018
album
##1
2013
thac
thuyen
##v
sa
hua
ep
tach
##es
17
huan
thung
uu
giat
ngoc
don
##da
##ic
huyen
chuoi
2009
york
doc
##en
vuon
##le
2004
ninh
bom
john
24
##f
khich
nuong
ngac
nem
##te
ngot
##ne
##na
son
ran
2008
ne
bia
beo
sam
game
syria
##3
khuon
ac
oh
bach
sanh
hu
40
nhip
lat
lot
2007
trich
rai
##w
##5
##ine
internet
2006
##4
say
chin
keu
##is
protein
gmina
tia
que
##ka
21
ngang
nap
duoc
hit
đeo
luot
##ing
2019
giuong
##ta
xit
nhang
##man
nhoc
ii
##6
xi
kenh
ghet
##ki
duyet
bui
virus
leo
sep
##de
khon
##7
##ie
oc
##ce
thiep
na
om
com
gon
##ch
cum
##al
hoai
##re
2000
khieu
xoay
mun
chep
ngheo
##8
men
60
cuop
2005
quat
thoang
bap
sup
treo
rui
##9
triet
bep
lui
##ri
kin
22
ranh
##ro
##ma
guong
##va
bu
mao
windows
##ng
khoc
tuoc
điep
200
##se
khop
west
voivodeship
nhua
rao
email
canada
23
gen
vitamin
hi
ngat
dut
thau
chanh
##do
500
menh
xua
nhuan
1990
2003
rot
oxy
trom
ruot
diu
##ton
and
##sa
khoai
ruoi
im
##um
tua
##ba
tv
27
26
choc
google
serie
truot
28
but
thia
pomeranian
chot
uot
london
mexico
nat
##to
##ck
2001
##or
ron
phao
2002
##son
1980
ngau
nintendo
2020
90
paris
ray
ru
el
khen
80
nguong
xinh
giap
khat
dieu
##ya
##ke
cm
ghep
##ko
net
brazil
##ar
ri
##os
mg
khia
##el
xuan
khuc
trua
cup
kip
ngoan
james
##j
nghin
khoanh
gat
##et
kep
##ion
dat
maria
chen
suu
uh
##no
##ga
covid
##za
california
29
dep
nigeria
thon
1999
ua
calo
70
chile
##ter
yeah
nhuong
##ca
##co
washington
##st
vac
mary
xich
facebook
david
##ian
usd
##wa
phang
not
gac
##ol
szczecin
buong
đun
##lo
nhuc
muu
phun
pin
george
1970
##as
##ge
bit
##ide
1998
sy
ok
xao
gau
soan
kong
quet
gao
frank
nhuom
lech
300
jack
colombia
st
um
##der
31
##one
ngap
##ry
michael
##ha
45
chom
vach
apple
1997
##at
ram
1960
##ll
khe
nop
nhot
##id
robot
ven
##ski
##ve
cuba
400
suong
paul
##am
1996
3d
okay
##land
set
1995
1994
khiep
thom
los
ren
##ina
##ley
xoi
mam
##it
peter
warsaw
hep
ngc
35
##ed
##ly
xoan
trat
##ur
##dy
huynh
khuyet
ot
cheo
kg
giot
gieng
##me
xom
world
huoc
##ti
##ss
1992
bop
mieu
nhon
iii
nhen
##be
1950
chuoc
gie
khiem
##bo
32
1989
##ny
kiet
##ate
ret
philippines
dna
1993
##ty
hey
tue
vut
nghieng
ganh
1991
##li
##rt
min
argentina
natri
suon
chui
nguyet
heo
ml
suoi
robert
##ni
##sh
cui
##ler
iran
nghich
vanh
william
đut
venezuela
ted
camera
gach
nhai
##ad
đom
##di
##ey
##ner
##go
hiv
thep
##ov
##th
xang
enzyme
##rd
##il
file
seo
chop
map
##io
israel
##ua
##rs
del
##ase
1945
choang
microsoft
cut
gam
##ji
ghana
##ja
ah
liu
hot
android
##mi
dip
cbs
ion
1988
bar
lee
peru
khay
lun
rach
##ir
##pa
##ow
##bi
buyt
##q
##tion
75
##hi
trum
vit
carbon
charles
iphone
hach
##ers
ngui
asean
trac
##om
vot
buom
henry
##ium
1987
loang
1986
##lla
sen
kali
at
rock
mike
website
youtube
150
cd
qui
harry
##ah
1985
tep
ngao
##ot
48
canxi
nhoi
hormone
##ff
khoac
ghen
jim
martin
nhao
nep
##pe
##yl
fda
##les
1975
house
nuot
##ku
##lin
##rin
tokyo
đoat
thomas
##ster
##nt
usb
nai
1979
##berg
angeles
##ze
luy
top
chuom
1984
mim
city
sut
uganda
richard
1983
radio
latinh
##tt
pop
vun
##nd
mm
texas
well
bill
##un
##ker
phot
oliver
##line
kieng
nghen
##ria
you
florida
mark
joe
##ska
1982
uon
ken
tq
00
hydro
gion
##rn
tuu
##ana
36
##ut
khuay
latin
##so
singapore
đui
600
charlie
##den
lut
##ran
run
cun
saint
park
loet
jamaica
loa
##sk
##ron
eo
1976
obama
##em
##ai
alpha
beta
claire
for
##ds
league
##ts
##ice
pro
jean
nhiep
phac
ross
campuchia
king
##si
38
gel
1000
one
lit
fbi
smith
got
ni
max
##ard
1981
mom
ria
##ho
64
1930
##ino
bob
chiet
krakow
##ville
1978
berlin
800
1940
steroid
ui
##jo
34
piano
##tin
tcn
37
xen
blog
xach
##vi
##he
indonesia
55
louis
33
adam
##per
ph
sec
1973
suyt
##ek
alex
1974
rome
42
bun
francisco
chicago
65
kito
yoga
1972
99
cape
up
afghanistan
chris
twitter
##ay
##sky
opera
trump
##ber
boy
rachel
##ger
##ham
1939
##ls
nac
feet
kiep
estrogen
iraq
##ky
nhet
##mo
1977
##han
##ica
jackson
khuynh
xiu
as
black
##ld
joseph
##gen
daniel
##ble
1944
chum
nhuoc
##shi
leu
joey
malaysia
##her
entertainment
treu
sarah
steve
show
dap
insulin
kenya
##tor
zealand
giun
1968
dvd
gin
inch
##ver
lach
##ene
##gi
linux
##nia
laser
scotland
##chi
##ung
victoria
120
play
khanh
##tic
1971
love
##ak
1920
cacbon
anna
logic
arthur
kheo
buu
stress
##ation
250
scott
1967
##ure
39
khuat
##ns
thieng
vom
1962
sara
##wood
##tte
diem
##ee
nghiet
##dia
##ius
deo
ireland
red
edward
hama
##au
##su
music
us
1969
1941
det
iv
super
jimmy
chip
##ura
##res
##way
wii
mut
##vo
##nie
##lle
##ong
mia
kepler
95
elizabeth
1965
liem
marie
en
##ite
jane
noc
1964
johnson
##llo
##by
pakistan
barry
cholesterol
jose
olympic
truu
##eo
##ru
1961
##ford
times
yem
##nes
1963
testosterone
santa
monica
rio
##po
43
coronavirus
nasa
puerto
1956
44
xuoc
big
sega
##burg
1966
guitar
tet
1958
52
electron
hungary
##lt
1959
°c
##tan
##ec
brown
hoanh
##ct
##tes
then
aids
guc
gung
khiet
##ies
47
queen
rico
boston
##ea
carl
##lu
ruc
santiago
francis
inc
phung
##don
##ric
young
##od
đup
##ps
fc
phet
##zi
alexander
idlib
clorua
xat
1946
grand
##lia
##gan
all
##sen
1949
1942
85
##well
1943
1954
ecuador
wilson
##im
amin
hac
miami
xap
##we
costa
##ac
1948
700
tony
harvard
##up
mep
##win
mr
uop
46
gdp
guatemala
eu
##que
1957
jones
1955
nghet
star
xon
haiti
will
72
xoang
##ye
##ney
inn
##ao
##ara
1953
billy
##ft
calcio
##ment
amazon
tivi
pizza
danny
off
##ane
caffeine
town
##ier
##op
series
##lan
##yn
1947
las
os
studio
system
1952
41
ipad
virginia
##dine
##ban
##mann
quac
euro
##00
jobs
international
taxi
time
ukraine
##ist
khep
tp
co2
##bs
##ent
dum
pc
sun
##ks
garcia
settings
##tus
##zo
duyen
jazz
nieu
##đa
gieo
white
nanh
matt
49
##cy
##bin
51
##ue
56
jan
##my
lieng
gram
congo
oai
mazurskie
53
tommy
##đuoc
morgan
tunisia
##mer
km2
start
##via
south
##cua
bich
juan
##bia
##fa
##und
##lly
neo
##che
##ira
home
www
##ano
##zole
cack
store
college
magie
wales
##ang
##oi
##ola
##wski
62
cia
dopamine
walter
54
andrew
##age
##day
jordan
nick
##ary
##ix
khuech
moscow
nhut
##ik
flash
rop
rica
adn
##ux
1951
eric
hd
logo
aspirin
ceo
united
carlos
miller
##bert
playstation
brian
ios
nung
##mine
fan
nobel
victor
fi
muong
##ae
##field
emily
xop
wikipedia
xy
##amine
kevin
khinh
##sis
dave
with
seoul
eccellenza
##net
buenos
gu
##ita
hue
menu
tour
trinidad
serotonin
chenh
##rp
bbc
chandler
amy
carolina
##mon
anime
ford
national
##ese
##zine
1938
american
dance
laptop
dean
il
rwanda
simon
đit
vieng
##ins
aires
nathan
division
rom
##cin
##ela
##rk
billboard
ip
##ole
chrome
nahiyah
panama
##ning
ruong
##ini
et
hcm
hollywood
ds
live
thiu
##ire
58
carter
warminsko
yo
##hu
albert
ech
tem
xbox
lincoln
##ram
id
sierra
alice
cpu
##py
bup
57
is
stalin
##ci
##des
##lus
1918
##20
hannah
un
##vin
glucose
##km
##sha
1937
59
georgia
nito
1919
street
ali
diep
##ras
madrid
1936
pokemon
johnny
##cia
babylon
media
##ok
suyen
##ten
##wice
68
##gel
hem
online
##ons
australia
01
caribbean
corona
ft
hawaii
taylor
##ich
lom
oscar
wi
##gue
##tra
##vao
05
mario
##ort
pdf
who
##ise
jesus
88
eddie
omega
##lton
##nh
##kin
hitler
micro
##era
##ev
goa
news
##rry
##tta
##wan
oxford
xai
##lar
##ven
##ii
##ish
##lk
clinton
histamine
##rio
phinh
##eon
switch
98
itunes
williams
##ei
##rat
explorer
##du
##lon
##oc
##nam
##nn
khuyu
mail
fox
##vir
##yo
61
ed
nghenh
zero
##ive
##ston
##wo
air
##nce
columbia
group
myanmar
##ves
##tz
trut
ut
##rton
litva
rem
##dan
mit
open
club
manga
siet
andy
howard
pete
trau
##bu
blue
solo
thot
present
oan
##gs
clo
hill
##len
##sy
jersey
xui
games
instagram
##ep
##ib
##mide
gordon
sony
xoai
##kie
acetate
anne
dc
records
##cho
##min
rose
##ller
donald
uruguay
1900
##ata
##rie
mol
67
jr
kate
silesian
63
diego
##din
96
gene
ana
##ell
##lc
##sco
des
pan
##ms
##nik
86
##rine
muot
wow
##ala
france
nm
##ring
180
1928
bruce
ryan
tut
green
1932
ethiopia
##zen
chich
koszalin
##ple
dr
##town
proton
##ris
66
04
06
1929
blogger
delta
samsung
82
900
ang
art
rosa
1933
model
sudan
##port
##tone
ss
xot
##ika
barbara
77
alan
##ction
##ien
1935
einstein
lagos
##ale
##rma
wayne
##ou
##zer
dot
teo
rick
##dra
ghim
jake
lympho
##kh
chuon
cotton
09
pennsylvania
via
##ph
07
cafe
olsztyn
hooc
ipod
org
walker
androgen
jason
soda
america
##com
##red
catherine
colin
jessica
jin
##bc
command
##dor
08
doug
emma
huou
word
##uk
choszczno
##zy
ar
##rom
drive
vegas
antonio
opioid
roy
##fi
##ona
##rm
christian
##ile
##ser
73
due
just
robin
##nica
##10
79
nepal
##ics
##rne
##xin
lega
##12
##wi
fantasy
lisa
methyl
perry
phoebe
##bra
##ling
##sin
1934
leon
let
##bon
##ick
##lic
##lie
84
##nk
gamma
huc
lewis
patrick
##die
##fe
manhattan
samuel
wall
##ken
##tu
76
anderson
giuc
roman
1922
71
excel
chem
gb
ibm
##ama
##gon
##ora
final
##rc
##rus
##ud
ohio
szczecinek
##ex
##row
guinea
nit
ward
xuoi
silesia
##ada
##lf
##ren
ngach
philadelphia
tab
vienna
gps
voc
##25
##ain
##idine
##oa
napoleon
##hy
bush
ch
matthew
stephen
trot
clark
walt
##hn
##ity
##ycin
1912
1914
uefa
##ding
02
by
davis
stark
tampon
##pd
03
360
89
genesis
post
sydney
amanda
kennedy
luis
ngoac
xeo
fifa
gary
pierre
salvador
silicon
74
##oid
cruz
martha
your
guom
troc
abu
biem
desktop
phich
savage
##pi
##tine
1927
acid
estradiol
fort
network
night
##shire
chun
johannesburg
little
marshall
paulo
poznan
##dt
##ose
##the
bin
clb
ibuprofen
massachusetts
oxi
tanzania
##and
##cher
rodriguez
##cs
adams
hank
##ted
1924
91
annie
##con
##ison
##vis
130
lima
riu
tray
##ington
83
nano
soai
##stein
1913
1925
bobby
dragon
hack
##vel
81
life
nin
sandwich
telenovela
##lli
101
110
app
ctrl
##mm
allen
amoniac
drawsko
este
hall
oxit
putin
1921
margaret
##book
##ula
1910
92
newton
93
armenia
homs
jong
mini
##rg
##trong
240
97
ngong
arizona
harold
nom
sportiva
bet
ms
ottoman
titan
##bat
##cki
jesse
87
bip
dom
ltd
69
pablo
port
save
toronto
##ap
##ein
##ree
bell
florence
https
nato
next
cop
corticosteroid
high
roger
##ans
##sc
140
##ero
##ral
78
algeria
sin
##fc
1917
1931
benjamin
khuya
##bel
##llon
##terone
line
##bar
##vy
north
or
sean
##aki
##dom
ann
##ys
##zu
##ui
##ł
java
luom
##ique
1923
janeiro
jay
sri
susan
350
cairo
khoat
phanh
rep
sherlock
##pc
angela
hip
jerry
raymond
##ena
##ome
##ori
aleppo
dj
jeff
thea
##late
brooklyn
dia
phil
phuoc
bass
milan
tyler
cambridge
##yah
94
finch
grant
lily
stone
##ania
##pp
control
golf
sd
underwood
1926
huh
karen
vincent
justin
pound
type
##30
##ul
firefox
ivan
roc
##lis
##ogen
##ros
grace
nuou
real
thun
##ial
##ssa
reu
salad
##all
##val
icloud
leone
miss
##ith
3000
helen
laura
num
power
##15
alfred
anthony
lawrence
##hen
gium
ht
nicaragua
darwin
jacob
tuot
##gia
##rah
bus
disney
from
ian
marathon
stargard
vap
##are
##ju
##non
##owo
charlotte
cocaine
divisione
##bal
download
nach
##dge
##rol
##sta
asd
havana
kelly
progesterone
##dow
##hl
5000
carbohydrate
nuc
##ore
##rand
bogota
corporation
digital
michigan
virut
##11
##rley
atlanta
kaliningrad
linda
marty
old
won
zambia
##rian
160
data
luke
tell
##aka
##je
##pt
##sia
alzheimer
east
phay
##ari
##bie
##itz
##ova
##ping
##sey
##sko
dos
##iel
##mond
##tive
##yu
caribe
damascus
earth
union
##mia
cameron
dennis
##gh
##lah
baby
island
laurel
po
team
##gin
##nda
chuck
honduras
square
wrocław
##ean
##gger
out
this
##ico
##ila
##ril
bangladesh
nsaid
##ach
##cm
##san
acetaminophen
italia
thet
##kov
khit
sławno
##gy
##ille
##key
##kg
##let
palmer
##gg
heli
herschel
larry
rna
yes
barcelona
gonzalez
socola
##af
##nte
##rna
bieng
bolivia
gideon
##16
##sion
houston
parker
reid
vladimir
##mba
foundation
gmail
katie
lucy
office
martinez
namibia
norman
sir
##ani
##bb
##ito
##ryl
karl
peptide
veo
##ato
##pton
##rge
link
moon
mp
nelson
stanisław
##stan
##tis
1500
450
heroin
liberia
louise
##rone
##van
holmes
senegal
##22
##olone
##phan
##stone
##low
##rina
##ws
125
adhd
card
hydrat
nitrat
op
##cc
##cht
##cus
##fo
##sz
1911
harvey
school
##mp
##ness
##rick
baltic
c2
company
elena
marcus
toai
##men
##zie
abraham
assyria
julia
moore
orleans
##ctor
##tal
coca
england
kyoto
nheo
##yan
franklin
galaxy
nhim
rinh
uv
##cha
##del
airlines
carmen
sui
belarus
bydgoszcz
code
general
les
steven
##ab
##iec
##lay
##rch
greg
roosevelt
##ben
##ez
##light
##mont
##rong
##tti
castle
console
mrsa
##32
##nne
clay
nina
unesco
##ern
##moto
fiona
intel
palestine
##lone
##tions
benzodiazepine
philip
tum
university
##off
##oli
##rse
##vision
gryfice
lucas
đola
lady
roma
zachodniopomorskie
##lip
##oma
html
jung
manuel
neutron
ngop
shin
##phone
bluetooth
ethan
hamster
prince
##26
##ami
##cz
##ware
##wer
maya
##bian
##har
##tsu
best
gabriel
girl
nes
parkinson
stanford
state
##fer
colorado
german
potter
russell
##ield
##och
awards
douglas
netflix
thut
ukraina
##box
##ings
##kar
api
manchester
moskva
server
christopher
dickon
hun
like
moses
mtv
sumer
zimbabwe
##bol
##tai
##ving
god
hunter
jon
lanka
noel
whoa
yi
##21
##sp
1905
1908
bank
cole
light
iso
plasma
sahara
thoc
##ald
##jan
##tron
slide
##40
##72
##berry
##lam
cortisol
gong
ngoat
phach
venice
##ess
##of
felix
frederick
great
missouri
teddy
##bre
##bury
##est
##mus
##ury
kafr
nghech
##19
##ida
2021
jerusalem
percy
##ati
##aya
##bus
##tv
andre
apollo
bulgaria
carol
cooper
name
wells
##75
##dal
##sei
cameroon
der
free
theu
##ado
##fs
##icz
##rent
##shima
##đe
fe
gaba
gryfino
nacional
penicillin
pla
xan
##50
##aa
##ax
##chen
##ient
##wick
1915
baker
turner
điec
##dar
##ele
##nge
##ory
julie
ligue
pa
##yama
dioxide
noah
women
##95
##done
##nis
##ord
##zepam
add
carrie
somalia
xx
##60
##rra
##tia
##una
center
delhi
ellen
first
stefan
tpp
##ball
##gn
##hal
##rum
##wn
1⁄2
athens
cardio
kansas
miguel
radar
royal
##ew
##nic
associazione
austin
tit
##28
##66
##eta
##ght
##out
##ult
caracas
derek
hacker
mri
##17
1909
bond
kołobrzeg
michelle
press
tanh
##18
##ddy
##dos
miet
seattle
stade
swidwin
tweet
##illo
##zyn
gym
ng
##rate
##sus
##usa
##virus
##zno
gates
illinois
jefferson
jonathan
neil
oz
sulfate
touch
turk
##bot
##ock
1904
croatia
global
good
nhuyen
nicholas
ragnar
sim
soo
teen
vodka
woo
##ag
##eh
##nto
china
coulson
fire
gas
kinase
lopez
saturn
uom
watson
we
łodz
##dale
##gu
##illin
##ox
##pm
##rey
cola
hamilton
miles
party
##13
##14
##tar
betty
hans
ji
maggie
promozione
remote
##can
##cer
##cker
##ella
##oo
##reen
##rner
##α
1800
diaz
gdansk
oregon
serbia
##24
##aine
##dd
##ens
##oxit
##ress
##rit
minecraft
mozambique
reo
warszawa
##cks
##hr
##rez
aristotle
ashley
central
mode
yahoo
##pr
##rium
##use
##vian
##zar
beth
bim
estonia
khmer
lydia
mississippi
quyt
slovakia
wolf
##zko
alaska
joy
kang
teresa
##dora
##ggs
##hop
##ont
ak
bonnie
clip
collagen
harris
http
japan
libya
niu
angel
khet
salicylic
story
trui
##mber
##mes
##pad
##rta
brad
caesar
enzym
gotham
lipid
##ann
##cio
##lda
##time
andrea
chase
debbie
malcolm
metal
##kins
##ous
c1
color
nancy
oliu
reese
##80
##ctin
##hip
##lica
##rden
gold
jozef
kamien
lucia
maryland
master
perez
ue
##ider
apec
bitcoin
connor
josh
loe
rebecca
url
##77
1902
adobe
gloria
leonard
linkin
western
xiec
##ill
##kow
##ream
1890
1916
aaron
pedro
snapchat
tobago
##lman
##sso
##tos
1901
bhutan
bruno
county
dui
ebola
iceland
prima
robinson
toat
##86
##owski
##pin
felicity
gomez
land
lia
ned
nhun
stella
way
##cion
##nol
1907
fred
golden
maroc
now
vistula
vv
##iff
##nberg
##worth
1880
angola
m2
murray
ruth
seth
xien
##23
##33
##ima
##side
abc
blake
castro
ct
die
end
enterprise
rapper
sheldon
stan
sushi
tennis
vecto
visa
warfarin
##47
##art
##ical
actor
amor
back
barack
champions
channel
fernando
graham
guy
manila
terry
##ant
##bit
##ias
##ridge
##ting
##won
apache
british
buou
jo
molly
quest
thompson
uhm
xix
yale
##cine
##rza
##voi
abe
girls
##ace
##lyn
##nan
##zzo
beach
caroline
detroit
gothic
isaac
vpn
##69
1906
2030
3ds
championnat
elip
jacques
kit
malawi
single
yet
##if
##rre
##uong
barney
hubble
lebanon
mercedes
mobile
rand
sex
software
##iana
foreman
hugo
##boy
##dian
##lina
##pine
##uc
911
dallas
es
lotion
peroxide
sanchez
starling
vera
##70
##air
##cle
##hin
##iya
##ml
##ła
220
albania
arts
białogard
byzantine
jennifer
lance
lgbt
patricia
##49
##elo
##kawa
##mar
##sas
##tle
##very
##đ
grammy
lou
m3
mali
nhong
nsa
sebastian
shakespeare
shaw
##dus
##gram
##ugh
750
messenger
nba
shinoda
##igo
##kes
##yle
115
nairobi
##82
##gc
##ism
bahamas
gieu
gilgamesh
mv
router
whatsapp
##38
##90
##dad
##dp
##gio
##rice
105
daily
knight
ruy
space
virgin
##iko
##illa
##sie
ethanol
joshua
seconda
snow
tvn
uyen
##gma
##gun
##ip
##las
##tide
##tre
##une
boris
diana
plus
road
sc
utc
verde
##41
##42
##44
##enburg
##eu
##ions
##iro
##lene
##met
##oon
##tam
collins
hdmi
io
isabel
logan
madison
wyatt
##dr
##eus
##hire
##onia
##ther
##unt
advance
marco
nokia
vietnam
##cung
##eb
##hg
##rel
128
1903
hee
hlv
juana
lara
otto
phoenix
riley
rum
skype
sol
##81
##los
##owa
##sch
##zel
katowice
khuu
mw
philippe
roberto
computer
herpes
italy
jamie
pharaoh
point
tennessee
##64
##iso
##zewo
christina
cross
giesu
river
##ali
##bine
##dex
##hane
##kan
##kowo
##lm
bennet
brody
diesel
forbes
human
iot
liti
romania
saul
sylvia
##36
##vier
##yer
copy
film
ghb
hum
led
lim
montreal
pixel
scarlett
soul
view
##aux
##hon
##our
##rman
##uda
clarke
scan
##bby
##gf
##izumab
##lp
##wald
alexandria
choe
guardian
keith
uk
what
##int
##ries
adenosine
bangkok
brussels
hmm
stewart
##31
##cycline
##fl
##mg
kingston
photon
russian
th
##39
##ashi
##xon
##yi
barnes
bengal
chech
dominican
iu
jill
kirk
norepinephrine
##ath
##col
##hs
##lov
##more
##sse
##tch
##uchi
##zone
ab
africa
gien
luther
sophie
toilet
°f
đoa
##gua
##nger
##tat
##ude
##đong
cocktail
lhq
metro
muhammad
nevada
ngum
pi
project
##ade
##cao
##rite
##tein
cacbonat
calorie
campbell
foot
foster
hydra
julian
louisiana
mabuchi
munich
nicotine
page
##37
##79
##bers
##ech
##ture
bernard
caffein
cuddy
dana
marcel
rafael
sp
spartacus
two
##onic
##ward
##zon
den
jenny
maarrat
nixon
polymer
toner
warner
win
##92
##aire
##amide
##caine
##dc
##ear
##ere
##phat
##zide
endorphin
fitz
hudson
hunt
watch
##ader
##ast
##cket
##hang
##nc
##nch
##tha
##vc
amsterdam
atp
botswana
bryan
evan
ia
jorge
melbourne
saudi
##rning
##rrow
##urne
##vil
down
plato
pomorskie
santos
##eed
##heim
##llen
##reek
##sson
##tas
block
buddy
esther
evans
kilomet
lane
lublin
nike
pomorski
studios
##cl
##hia
##nin
##vich
##vik
bum
clara
family
fujiwara
hyun
limited
merlyn
minnesota
more
terminal
universal
vani
##27
##ated
##ffrey
##gne
##king
##lls
##ruto
cox
mama
petersburg
phon
đcstq
##eg
##kiewicz
##uma
dea
fernandez
manny
mega
television
troy
##43
##rte
##uel
##uri
geneva
lord
reagan
voice
##eda
##iss
##nap
##oka
##pu
bennington
christine
darcy
florua
lannister
okinawa
valley
vanessa
warren
wilhelm
##48
##ack
##ents
##ets
##ett
##ffe
##mie
##oe
##ramine
##rena
##tate
##urn
##water
azerbaijan
brasil
gamecube
heart
klaus
nhich
scofield
sip
stanley
ubuntu
##46
##dore
##sto
##uoc
##wen
170
ahmed
atm
august
capitol
ethernet
guyana
nia
outlook
reed
vali
##99
##lass
##sd
##ulu
##war
##wson
ad
adrenergic
aerobic
algerie
joan
last
lenin
tnhh
tret
xeng
##ig
##sty
biała
lem
mc
pictures
seychelles
shift
tuyp
##hai
##mu
##nale
##tom
##zin
account
edge
kazimierz
lip
vector
##96
##dies
##iol
##wat
##ways
##wl
1870
anc
anion
berkeley
boong
huyt
jae
pm
ramon
##45
##ight
##rates
##sche
##uin
##ute
1860
carlo
hector
kent
ontario
silva
##29
##cock
##eca
##feld
##ges
##hama
##sine
##−
ester
hills
polyme
sars
swift
toyota
##ator
##board
##ette
##mas
##rim
1898
cisco
gregory
namco
phiem
vii
zoe
##ert
##lat
##vie
##xit
ballet
express
festival
halloween
khieng
lg
lin
movie
oklahoma
olga
omar
wisconsin
zdroj
##lles
##tro
##yen
##zepine
##zki
baroque
jeremy
mason
owen
polish
princeton
saxon
veronica
wright
zeus
##94
##eeta
##hall
##mit
1895
ace
cook
finn
gabon
gora
grande
jang
vest
##eira
##house
##ichi
##kowski
##sel
alt
grayson
kid
kyle
lab
marta
siberia
##ague
##dam
##ffin
##ista
##iyah
##oni
##rain
##rtisone
1894
edgar
iris
mauritius
pit
rob
triu
tuon
villa
xia
##any
##ash
##awa
##bao
##gate
##vas
1896
augustus
broadway
deir
get
hal
miranda
oxytocin
search
wendy
władysław
yemen
##bow
##ente
##jin
##nca
##oft
##pho
##rz
##sphate
bazo
ellis
eugene
harrison
kazakhstan
rit
rita
selma
short
spa
wade
war
##ewo
##mal
##pol
##ridine
##thy
andrzej
coli
heparin
hindi
karate
phosphate
ralph
usan
vaccine
##inic
##oke
##xt
##yce
##ː
aas
amber
brunei
dog
donna
dsi
grey
nikolai
oil
player
science
spencer
vinci
đech
##dley
##ht
##nse
##oy
##sing
##skie
bari
cdc
dreamcast
duke
hassan
ibn
manager
podcast
##chowo
##craft
##etta
##grad
##lta
##mat
##pur
1885
1897
baltimore
bros
dark
helena
hillary
hindu
kai
lauren
lithium
raul
ts
unix
yoon
##back
##here
##olin
##tel
alberto
casey
history
megan
orange
ronald
stuart
##dio
##eer
##ees
##lio
##llie
##omi
##uan
1830
alabama
barbados
bravo
motors
ngom
sally
##85
##eto
##fp
##hat
##ngo
##ovich
##rius
##roy
##sley
##ste
##sv
##tech
##wel
##zig
109
are
bartoszyce
bristol
cathy
damon
edinburgh
jackie
liec
log
marketing
oto
porter
reggae
shell
sky
##ative
##aw
##eng
##hot
##nell
##rest
##sb
1893
ash
carson
craig
deep
edo
greenland
mars
motor
##58
##erin
##ful
##gna
##gos
##ike
##iva
##lbert
##nder
##over
##rdo
##sf
##wy
conrad
cristina
daisy
dl
edition
ic
kiev
mandela
maurice
panel
paypal
safari
solomon
sports
stockholm
##iew
##orm
##ql
##rth
##ters
##tyl
bmi
cecil
claude
dominica
judy
lester
robertson
sound
vs
yoo
##able
##bital
##cca
##dase
##idone
##ners
##og
##ride
##rty
##ule
##xa
calvin
cation
disk
madagascar
nana
phone
salamiyah
sk
thuo
##bah
##bl
##erson
##icate
##idae
##ower
##sm
##ug
##xe
##xo
##ły
4000
cloud
dilettantistica
europa
groot
hangul
magic
order
pittsburgh
queens
serum
test
wa
yuri
##55
##burn
##dh
##eck
##gle
##hea
##inski
##ology
##ret
cytokine
diane
gut
holly
hp
mb
modem
ninja
people
prix
stanislaus
tor
##93
##97
##aha
##lem
##rdy
##uba
##zek
ag
ailen
birmingham
dream
eve
fm
indiana
key
nicolas
rich
sea
tae
valencia
##35
##cess
##een
##ef
##elin
##ensen
##ery
##iter
##khong
##lder
##mark
##rad
benzodiazepin
chad
cohen
football
hope
mercury
pyrzyce
skye
sophia
##ass
##das
##gor
##hito
##lace
##lands
##lee
##oh
##olo
##σ
1899
arrow
audio
bazan
chart
coupe
interferon
irene
kyung
lloyd
ptsd
simmons
sue
##57
##cil
##igan
##lot
##rgio
##uat
##ular
amphetamine
butler
connecticut
dubai
elias
english
galicia
hugh
hydroxyl
liga
marx
mysliborz
usa
##cam
##cord
##fu
##gar
##gie
##lade
##onso
##rera
##ryn
1886
copenhagen
cover
cp
dimashq
gus
leonardo
liban
liz
luxembourg
major
nhs
qatar
summer
##89
##chu
##dro
##elli
##pia
##quez
##rmon
1⁄4
bailey
chester
cleveland
goleniow
hotch
judith
million
olivia
para
paula
philippin
vinyl
##34
##54
##alo
##bach
##bson
##frey
##gine
##ites
##ogy
##zia
cal
churchill
cynthia
ea
enterprises
husky
mcdonald
natal
nguu
quentin
samurai
sylar
wang
watt
łobez
##aro
##cu
##etti
##ids
##oro
##sai
##uth
##xy
blu
camp
eva
main
michel
pomerania
sandra
vec
##aba
##cts
##hara
##mad
##rh
##rr
##ties
##ub
##wiec
108
baxter
bina
cnn
erik
fa
georges
hydrochloride
istanbul
lorraine
monroe
morris
states
systems
vatican
##74
##bor
##ces
##esia
##fen
##inger
##lor
##pl
##raa
##rtus
##ual
##zzi
bad
cabin
julio
montana
murphy
naples
proxy
tesla
violet
##cent
##eau
##linda
##llah
##pan
##quila
##zilla
1200
230
battle
bing
call
duncan
hernandez
kara
kentucky
oder
prompt
yu
zoom
##gina
##isse
##loxacin
##nah
##nard
##vers
##zir
##ław
blood
chapman
dim
drake
eritrea
ether
french
gliese
greater
lake
lazio
portland
scarborough
slav
spin
stevens
xl
##ance
##bright
##ctose
##hima
##ior
##orn
alvarez
atari
brothers
fu
gate
holocaust
lorenzo
mikhail
niger
roll
##hel
##lanow
##lice
##lma
##pie
##ray
##rett
##rich
##rnell
##tinib
##uo
##wall
##zumab
cc
famicom
friedrich
gheo
luisa
makerere
mount
osaka
quark
quebec
##cham
##drine
##erone
##hing
##iet
##vastatin
##yne
112
175
1850
business
cholinergic
cyrus
giem
gm
iowa
latvia
meta
pascal
salon
secret
sonic
thiec
truat
whiskey
##azole
##bio
##dina
##ence
##inal
##kai
##osa
##rov
135
abby
amoni
chavez
core
durban
floyd
francois
nicole
note
only
robbie
tadeusz
truman
utah
vega
vivo
##bes
##byte
##hone
##mel
##olis
##ration
##rce
##rose
##tium
##von
##yon
folic
histamin
montgomery
olive
singer
weekly
##ando
##card
##form
##ines
##lski
##mate
##mic
##rai
##uss
##uta
action
alicia
białystok
bradley
carlyle
er
force
iron
khuoc
level
library
lower
phillips
trevor
wars
##78
##amo
##dai
##nna
##oxide
##pes
##polis
beckett
benzoyl
fischer
gray
nhoang
nikita
nova
pink
ruoc
sandy
sofa
tracy
##ako
##ego
##erald
##ewski
##ggio
##isa
##kah
##llulose
##rona
##sca
##tian
##viv
107
1868
arnold
bowling
cricket
death
gandhi
gs
heather
ice
lum
macos
mafia
peterson
print
right
romeo
snes
ultra
##67
##azine
##floxacin
##hard
##idas
##inoid
##ios
##kon
##lav
##ood
##rock
##tosterone
##try
118
box
casimir
delete
ethyl
heinrich
joel
mbc
metan
nice
por
reuters
siro
torres
vin
##czyn
##dre
##iny
##jet
##mund
##nish
##nski
##omycin
##pen
##rrell
104
1600
2050
afro
avatar
bavaria
burger
coast
gabriela
gluten
johann
margarita
merlin
ocd
petrov
powell
text
update
whitney
##bbit
##bd
##hz
##mett
##pest
##relli
##tr
##ylon
256
anton
atlantic
becca
dawn
edit
elisabeth
ernst
flynn
marc
nitrit
options
powerpoint
root
soyuz
spf
tiktok
tina
una
##53
##chester
##ester
##eum
##guchi
##kers
##lex
##nza
##quine
##rush
##set
##tropin
##tto
##unk
##vd
##vey
##wich
##xel
##yp
113
akkad
award
henri
if
moreno
pat
poster
sign
woman
##bay
##eno
##gers
##gro
##how
##lga
##ppa
##qi
##stic
##tag
##tura
##urt
111
1892
accra
amino
aureus
cephalosporin
ec
evil
gabaa
gaon
ix
june
luna
lupus
nowy
pradesh
ptolemy
public
slade
theodore
tyrosine
vancouver
vy
##52
##84
##atin
##old
##ols
##rook
##vina
320
ach
atletico
casa
chloe
find
frankfurt
hiro
lizzy
pearl
plaza
probiotic
satan
slam
standard
sultan
tajikistan
under
zip
##87
##ail
##azepam
##db
##elle
##mir
##ssi
##sław
##ules
##đo
103
123
1863
agnes
alexis
cn
eduardo
four
kuwait
morales
pronunciation
qaeda
ruby
skyler
tango
teatro
valentine
##azone
##cillin
##eric
##ieu
##mail
##ofi
##rani
##ses
##uard
##works
arcade
chocolate
fax
giovanni
hughes
melatonin
mitchell
mona
morocco
photos
productions
spock
vida
winterfell
##aga
##enna
##ghter
##hah
##irus
##lock
##lution
##rphin
##sar
##tie
##tley
1871
1888
adrenaline
arte
benedict
boys
burundi
coppa
dreyer
franz
hand
holi
korea
mar
nhum
orlando
pepsi
premier
roberts
roland
taliban
vista
water
xoc
##aria
##cn
##ders
##dis
##ggle
##hor
##ɪ
association
brooks
cain
epsom
fletcher
friends
gmmtv
health
hydroxy
jeffrey
kampala
kev
khom
ldl
mack
malay
mickey
nakamura
nandrolone
niken
paz
ricky
sbs
simpson
vaseline
vic
yang
##88
##cal
##ilio
##mid
##pg
##radiol
##tino
##vice
##ło
1891
angiotensin
bohemia
dublin
falcone
flint
flo
format
gara
guayaquil
ka
lilly
lotte
mp3
nup
pet
photo
pretoria
silver
stars
takahashi
##68
##91
##bridge
##down
##gam
##itzer
##lase
##less
##sper
##tana
##yk
adolf
bauer
benin
capital
ce
chopin
delaney
gnu
hybrid
install
irac
krypton
lost
mohamed
pakixtan
price
soca
violin
wood
##59
##eller
##eros
##erry
##hine
##ject
##khi
##lley
##owice
##rid
##riter
##rphine
##shu
##sl
##sone
##star
##tow
117
190
aa
amelia
betta
bios
cacbohydrat
claudia
earl
eli
elle
inanna
jc
khuy
maine
malta
rhodes
rivera
salsa
spring
##anh
##ark
##brew
##core
##dwell
##etine
##hanh
##hime
##ngs
##rski
##tics
1884
650
actress
auschwitz
bennett
bolivar
carnegie
click
crystal
erin
frankie
javascript
journal
juliet
mendoza
mumbai
ricardo
viu
##73
##76
##but
##ddle
##icus
##ign
##long
##ppe
##rf
##roft
##ump
102
1887
april
arab
atlas
bella
cent
hopkins
jaime
janet
julius
konami
mas
pam
rosie
slovenia
todd
vip
wesley
##ame
##arov
##bez
##bos
##cing
##eva
##hm
##lit
##ovir
##protein
##rant
##urs
##uto
1865
550
banks
bolesław
crom
damien
dorothy
glenn
harper
honneur
legend
mccarthy
mill
preferences
protease
rice
sofia
sonny
suqaylabiyah
wallace
##bul
##gton
##hiro
##icia
##lby
##rita
##rl
##ssau
##vid
##vos
book
children
enrique
hyundai
jerzy
loanh
nile
nitric
sugar
webb
##56
##ados
##als
##ango
##bil
##dez
##lide
##rizon
##rot
##tane
##tase
1878
280
advanced
andes
bull
helium
mba
miriam
phiet
rogers
rumani
tara
tarzan
tr
viii
##aker
##att
##cial
##icon
##inone
##jar
##nya
##oud
##pus
##rii
##rono
##rost
##search
##sil
##zan
band
beck
biskupiec
cl
comic
demo
franco
full
holy
isabella
junior
lego
liam
moto
pacific
qt
schmidt
sullivan
tnf
travis
tup
unclos
viktor
vitro
##arin
##bla
##fta
##gra
##hay
##iki
##imab
##iper
##media
##nen
##oper
##rene
##saki
##shing
##vsky
##wicz
##xie
##zolam
##zz
##łowo
106
1862
1876
1889
365
allah
boeing
cbt
cecilia
christ
epinephrine
hamburger
jenkins
kenneth
machine
marvel
mekong
mhz
mohammed
montevideo
per
pfizer
pr
ronnie
sheila
wu
##83
##gas
##gol
##ides
##lobulin
##mil
##ody
##ono
##press
##resh
##uit
##world
##yeh
abbott
anita
bird
boric
bundesliga
conway
cookie
country
dollar
ebay
electronic
ernest
fide
hercules
image
iq
isopropyl
ja
macro
marina
medellin
merck
naproxen
nbc
pheu
security
singh
swaziland
tunis
##98
##aly
##ather
##bas
##cza
##lcon
##lent
##log
##mc
##ming
##nguoi
##rae
##right
##ssen
##udo
##vant
##vic
abel
about
bandai
cindy
cordoba
curtis
dead
escobar
finder
frankenstein
kosovo
lens
mod
ping
sum
talk
true
unione
virtual
##bbs
##dlock
##dm
##fua
##gb
##hur
##iens
##inib
##iti
##lil
##nyl
##orra
##ors
##range
##suko
##zio
1840
1883
batman
boulton
bronx
buot
championship
chlamydia
ee
everest
hpv
hydroxit
hypatia
mt
palm
racing
side
smart
sodium
tata
trust
turkmenistan
zach
##65
##cast
##gm
##iji
##keda
##lden
##loid
##pic
##poli
##sburg
##sman
##some
##uy
##vre
##zow
##zt
acrylic
andres
b12
ball
belle
container
derby
hawking
her
ibrahim
ingrid
katy
nt
report
staphylococcus
superman
theresa
toac
wild
##bacter
##bang
##ecki
##eong
##fly
##ido
##iner
##mere
##night
##ove
##uble
##umab
##urce
480
amd
animal
doris
future
kemper
kenny
neutrino
reyes
rip
santo
sulfat
xiem
##arit
##idi
##ious
##lau
##led
##llywood
##mura
##oran
##phetamine
##pot
##ptan
##rro
##sque
168
1834
270
arm
barbiturat
bartoszycki
bayer
bts
cali
celia
cuban
dylan
emilia
epa
exe
fisher
mariana
mic
mozart
over
poker
poland
rif
roche
sweet
ya
##2o
##asi
##hna
##hol
##iac
##ikh
##kaku
##ondo
##rap
##rgas
##strong
##vert
##wang
114
1864
aberdeen
acetylcholine
amiang
applications
bg
columbus
flores
how
isil
lesser
low
monte
pastry
pen
rover
sharon
##dic
##dler
##dron
##ime
##iz
##kara
##nius
##nowo
##pion
##rion
##xone
##ة
1848
belize
books
correa
golan
melissa
reductase
rene
torun
uzbekistan
xp
##ava
##cta
##dae
##leigh
##lid
##mycin
##rect
##rek
##rop
##sad
##urg
127
155
1861
aleksandra
arena
cayman
citta
cyp3a4
ghost
kb
korean
lactic
penny
phnom
prime
romero
silicone
sunni
##chie
##ezia
##hc
##law
##leotide
##lian
##rrows
##shaw
##tima
165
ayn
ballad
boss
domingo
dunbar
eun
field
gallagher
hamburg
homo
honey
jisr
milimet
naomi
osho
penh
queo
reset
richie
service
togo
tokugawa
vegan
viking
xoong
##aus
##cara
##dong
##gfr
##lim
##llas
##oglobin
##ogo
##ough
##tum
##vn
##wk
##yev
amidan
bc
cabo
cargetoria
charley
chronicles
crowley
forest
lionel
list
magellan
mk
monaco
natasha
neuron
ramos
rossi
samantha
services
sm
special
sunfat
uruk
year
zombie
##71
##bana
##cture
##derman
##drick
##hne
##ige
##jima
##jon
##kham
##laf
##mouth
##nos
##oz
##rbo
##reau
##stry
##tory
##windows
122
144
192
alejandro
aung
bs
clyde
dioxit
edith
fisk
idol
klein
know
kurd
ooh
society
stadio
statin
##bh
##born
##dium
##dwig
##eber
##erd
##hman
##ility
##kura
##lease
##mw
##oate
##pop
##rang
##romycin
##rough
##suka
##tric
##var
##yager
126
1867
1874
210
adrian
bosnia
cesar
dale
dehydrogenase
diamond
hoffman
jj
kindle
kung
luz
mart
mountain
password
photoshop
pope
remy
review
sasha
socrates
theory
toe
tuabin
upper
village
##ave
##cken
##ctam
##eim
##ering
##gler
##hou
##lena
##mite
##nor
##pire
##riko
##rix
##shin
##shop
##silon
##tose
alf
arap
bikini
boxing
cfa
e3
enter
fortune
hae
hale
heights
ibadan
imf
kremlin
lola
lup
macintosh
sammy
sanders
select
sr
trinity
##bn
##cept
##cilia
##donna
##ghuz
##lding
##nas
##niss
##olate
##omo
##ories
##rolimus
##rque
##rris
##sic
##urich
##ust
##vine
##zyme
##đi
1835
260
asia
create
crohn
crown
electronics
euclid
freud
herbert
josephine
magazine
nowe
oecd
rojas
terra
##acle
##ais
##aquin
##bank
##formin
##ggy
##hare
##head
##heus
##itol
##lling
##lucocorticoid
##nity
##orf
##phy
##qa
##raven
##rem
##ried
##sex
##ssina
##tka
##viet
129
aurora
bolton
byte
captain
citrus
come
elijah
fish
happy
lcd
management
masyaf
mcgill
nhuy
patty
rorschach
six
thui
tip
wiki
##alina
##carbon
##chin
##coside
##dance
##ghan
##jer
##mian
##nikov
##oth
##politan
##race
##а
1873
apartheid
blues
carb
elliot
ernesto
gore
hero
ku
latakia
liverpool
macedonia
natalie
pao
planet
reynolds
shughur
torino
triclosan
wola
##!
##"
###
##$
##%
##&
##'
##(
##)
##*
##+
##,
##-
##.
##/
##:
##;
##<
##=
##>
##?
##@
##[
##\
##]
##^
##`
##{
##|
##}
##~
##¡
##£
##¥
##§
##©
##«
##¬
##®
##°
##±
##¶
##·
##»
##¿
##×
##æ
##ð
##÷
##ø
##þ
##ħ
##ı
##ŋ
##œ
##ƒ
##ǀ
##ǁ
##ǂ
##ǃ
##ǝ
##ɑ
##ɒ
##ɔ
##ə
##ɛ
##ɜ
##ɡ
##ɣ
##ɨ
##ɯ
##ɲ
##ʃ
##ʊ
##ʌ
##ʒ
##ʔ
##ʻ
##ʼ
##ʾ
##ʿ
##ˀ
##ˈ
##ˌ
##˥
##˦
##˧
##˨
##˩
##β
##γ
##δ
##ε
##ζ
##η
##θ
##ι
##κ
##λ
##μ
##ν
##ξ
##ο
##π
##ρ
##τ
##υ
##φ
##χ
##ψ
##ω
##б
##в
##г
##д
##е
##ж
##з
##и
##к
##л
##м
##н
##о
##п
##р
##с
##т
##у
##ф
##х
##ц
##ч
##ш
##щ
##ъ
##ы
##ь
##э
##ю
##я
##і
##қ
##א
##ב
##ג
##ד
##ה
##ו
##ז
##ח
##י
##כ
##ל
##ם
##מ
##ן
##נ
##ס
##ע
##ק
##ר
##ש
##ת
##ء
##ا
##ب
##ت
##ث
##ج
##ح
##خ
##د
##ذ
##ر
##ز
##س
##ش
##ص
##ض
##ط
##ع
##غ
##ـ
##ف
##ق
##ك
##ل
##م
##ن
##ه
##و
##ى
##ي
##پ
##ک
##ی
##ܐ
##क
##ग
##ज
##ड
##त
##द
##न
##प
##ब
##भ
##म
##य
##र
##ल
##व
##स
##ह
##ा
##ि
##ी
##ो
##ক
##ট
##দ
##ব
##য
##র
##ল
##স
##া
##ি
##ে
##৳
##ා
##ก
##ข
##ค
##ง
##จ
##ช
##ด
##ต
##ท
##ธ
##น
##บ
##ป
##พ
##ฟ
##ภ
##ม
##ย
##ร
##ล
##ว
##ส
##ห
##อ
##ะ
##า
##เ
##แ
##โ
##ไ
##་
##င
##တ
##မ
##ာ
##ေ
##း
##ᄀ
##ᄁ
##ᄂ
##ᄃ
##ᄄ
##ᄅ
##ᄆ
##ᄇ
##ᄈ
##ᄉ
##ᄊ
##ᄋ
##ᄌ
##ᄍ
##ᄎ
##ᄏ
##ᄐ
##ᄑ
##ᄒ
##ᅡ
##ᅢ
##ᅣ
##ᅥ
##ᅦ
##ᅧ
##ᅨ
##ᅩ
##ᅪ
##ᅬ
##ᅭ
##ᅮ
##ᅯ
##ᅱ
##ᅲ
##ᅳ
##ᅴ
##ᅵ
##ᆨ
##ᆫ
##ᆯ
##ᆷ
##ᆸ
##ᆺ
##ᆻ
##ᆼ
##ᇀ
##ᵻ
##‐
##–
##―
##‘
##„
##‟
##†
##‡
##•
##‰
##′
##‹
##›
##⁄
##⁝
##€
##₹
##℞
##←
##→
##↓
##↵
##↹
##⇧
##⇩
##∀
##∂
##∅
##∆
##∇
##∈
##∏
##∑
##∓
##∗
##∘
##√
##∞
##∣
##∥
##∧
##∨
##∪
##∼
##≈
##≡
##≤
##≥
##⊂
##⊆
##⊕
##⊙
##⊞
##⋅
##⋮
##⋯
##⌘
##⌥
##⎙
##⏎
##■
##□
##▼
##◌
##●
##◦
##☃
##☆
##☉
##☰
##☺
##♠
##♥
##♪
##♭
##♯
##⚙
##✓
##✔
##⟨
##⟩
##、
##」
##あ
##い
##う
##え
##お
##か
##き
##く
##け
##こ
##さ
##し
##す
##そ
##た
##ち
##つ
##て
##と
##な
##に
##の
##は
##ひ
##ふ
##ほ
##ま
##み
##め
##も
##ゃ
##や
##ら
##り
##る
##ろ
##わ
##を
##ん
##ァ
##ア
##ィ
##イ
##ウ
##ェ
##エ
##ォ
##オ
##カ
##キ
##ク
##ケ
##コ
##サ
##シ
##ス
##セ
##ソ
##タ
##チ
##ッ
##ツ
##テ
##ト
##ナ
##ニ
##ヌ
##ネ
##ノ
##ハ
##ヒ
##フ
##ヘ
##ホ
##マ
##ミ
##ム
##メ
##モ
##ャ
##ヤ
##ュ
##ユ
##ョ
##ラ
##リ
##ル
##レ
##ロ
##ワ
##ン
##・
##ー
##一
##七
##三
##上
##下
##不
##世
##东
##中
##主
##丼
##久
##之
##乐
##九
##也
##事
##二
##云
##五
##井
##京
##人
##仁
##代
##令
##仮
##任
##份
##伊
##会
##伟
##传
##位
##佐
##何
##佛
##作
##你
##佳
##俊
##保
##信
##倍
##偏
##元
##兄
##先
##光
##党
##入
##全
##八
##公
##六
##关
##兵
##内
##军
##出
##分
##初
##判
##利
##制
##前
##力
##動
##勝
##化
##北
##十
##千
##华
##南
##博
##原
##友
##受
##古
##可
##台
##史
##号
##司
##吃
##合
##吉
##名
##后
##向
##君
##吳
##周
##味
##命
##和
##品
##唐
##喜
##嘉
##四
##回
##团
##国
##國
##圍
##園
##土
##在
##地
##场
##坂
##垣
##城
##堂
##場
##士
##夏
##夕
##外
##多
##夜
##大
##天
##太
##夫
##央
##奇
##女
##好
##如
##姜
##姫
##娘
##娱
##婚
##子
##字
##学
##孫
##學
##宅
##守
##安
##宋
##宗
##官
##定
##宝
##実
##室
##宮
##家
##宿
##密
##察
##寺
##寿
##将
##小
##少
##尚
##尾
##屋
##山
##峇
##峰
##島
##崎
##川
##州
##工
##布
##帝
##師
##常
##干
##平
##年
##府
##廠
##建
##式
##张
##張
##強
##彦
##影
##役
##御
##徳
##德
##心
##志
##忠
##思
##恋
##情
##想
##惹
##愛
##成
##我
##战
##戦
##所
##手
##技
##放
##政
##教
##文
##新
##方
##族
##日
##早
##昊
##明
##星
##春
##是
##時
##普
##智
##暨
##書
##最
##會
##月
##有
##服
##朝
##木
##未
##本
##朱
##机
##李
##村
##条
##東
##林
##校
##株
##桐
##桑
##梦
##棋
##棒
##森
##業
##楽
##横
##機
##次
##欧
##歌
##正
##武
##死
##母
##氏
##民
##水
##永
##汁
##求
##江
##池
##沙
##河
##油
##法
##波
##洋
##津
##派
##流
##浦
##浩
##海
##清
##温
##港
##源
##漢
##潜
##瀬
##火
##炊
##無
##焼
##煮
##爱
##物
##特
##玉
##王
##球
##理
##生
##田
##由
##电
##男
##画
##界
##白
##百
##的
##皇
##盛
##目
##直
##相
##省
##真
##眼
##知
##石
##社
##神
##福
##科
##空
##立
##端
##竹
##第
##精
##結
##統
##絵
##編
##红
##级
##美
##義
##老
##者
##自
##航
##艇
##艦
##良
##色
##艾
##花
##若
##英
##茶
##草
##菜
##華
##萬
##藍
##藤
##虎
##行
##術
##街
##衣
##袁
##西
##見
##親
##视
##言
##記
##話
##語
##记
##谢
##谷
##豆
##豪
##賢
##赤
##赵
##起
##超
##路
##身
##軍
##輝
##车
##辰
##迷
##送
##通
##速
##進
##遊
##運
##道
##選
##郎
##郡
##部
##都
##酒
##里
##重
##野
##金
##鍋
##長
##长
##門
##阿
##陈
##限
##院
##陳
##陸
##陽
##隊
##雄
##集
##雪
##雲
##雷
##青
##非
##面
##韓
##音
##風
##风
##飛
##食
##飯
##餡
##香
##馬
##马
##高
##鬼
##魔
##鳥
##麻
##黃
##龍
##￼
##�
##𒀭
