[PAD]
[UNK]
[START]
[END]
!
"
#
$
%
&
'
(
)
*
+
,
-
.
/
0
1
2
3
4
5
6
7
8
9
:
;
<
=
>
?
@
[
\
]
^
_
`
a
b
c
d
e
f
g
h
i
j
k
l
m
n
o
p
q
r
s
t
u
v
w
x
y
z
{
|
}
~
¡
¢
£
¥
¦
§
©
«
¬
®
°
±
¶
·
»
¿
×
æ
ð
÷
ø
þ
đ
ħ
ı
ł
ŋ
œ
ƒ
ǀ
ǁ
ǂ
ǃ
ǝ
ɑ
ɒ
ɔ
ə
ɛ
ɜ
ɡ
ɣ
ɨ
ɪ
ɯ
ɲ
ʃ
ʊ
ʌ
ʒ
ʔ
ʻ
ʼ
ʾ
ʿ
ˀ
ˈ
ˌ
ː
˥
˦
˧
˨
˩
α
β
γ
δ
ε
ζ
η
θ
ι
κ
λ
μ
ν
ξ
ο
π
ρ
σ
τ
υ
φ
χ
ψ
ω
а
б
в
г
д
е
ж
з
и
к
л
м
н
о
п
р
с
т
у
ф
х
ц
ч
ш
щ
ъ
ы
ь
э
ю
я
є
ѕ
і
ү
ա
ի
կ
հ
մ
յ
ն
ո
ս
տ
ր
ւ
א
ב
ג
ד
ה
ו
ז
ח
ט
י
כ
ל
ם
מ
ן
נ
ס
ע
פ
צ
ק
ר
ש
ת
ء
ا
ب
ة
ت
ث
ج
ح
خ
د
ذ
ر
ز
س
ش
ص
ض
ط
ظ
ع
غ
ـ
ف
ق
ك
ل
م
ن
ه
و
ى
ي
ٱ
پ
ک
گ
ی
क
च
ज
त
द
न
प
ब
भ
म
य
र
ल
व
स
ह
ा
ि
ी
ो
দ
র
স
ি
ක
ර
ා
ก
ข
ค
ง
จ
ช
ญ
ณ
ด
ต
ท
ธ
น
บ
ป
ผ
พ
ฟ
ภ
ม
ย
ร
ล
ว
ศ
ษ
ส
ห
อ
ะ
า
เ
แ
โ
ใ
ไ
ခ
င
န
မ
ာ
ေ
း
ა
ნ
ᄀ
ᄁ
ᄂ
ᄃ
ᄄ
ᄅ
ᄆ
ᄇ
ᄈ
ᄉ
ᄊ
ᄋ
ᄌ
ᄍ
ᄎ
ᄏ
ᄐ
ᄑ
ᄒ
ᅡ
ᅢ
ᅣ
ᅥ
ᅦ
ᅧ
ᅨ
ᅩ
ᅪ
ᅬ
ᅭ
ᅮ
ᅯ
ᅱ
ᅲ
ᅳ
ᅴ
ᅵ
ᆨ
ᆫ
ᆯ
ᆷ
ᆸ
ᆺ
ᆻ
ᆼ
ᆾ
ᇀ
ក
ត
ន
រ
ស
ា
‐
–
―
‘
„
†
‡
•
‰
′
‹
›
⁄
₩
€
₹
℞
←
→
↓
↹
⇧
∀
∂
∅
∆
∇
∈
∑
−
∓
∗
∘
√
∞
∣
∥
∧
∨
∪
∶
∼
≈
≡
≤
≥
⊂
⊆
⊕
⊙
⊞
⋅
⋮
⋯
⌘
⌥
⎙
⏎
■
▼
●
◦
☆
☉
☰
♠
♥
♪
♭
♯
⚙
⟨
⟩
、
あ
い
う
お
か
き
く
け
こ
さ
し
す
そ
た
ち
っ
つ
て
と
な
に
の
は
ふ
ほ
ま
み
め
も
ゃ
や
ら
り
る
ろ
わ
を
ん
ァ
ア
ィ
イ
ウ
ェ
エ
ォ
オ
カ
キ
ク
ケ
コ
サ
シ
ス
セ
ソ
タ
チ
ッ
ツ
テ
ト
ナ
ニ
ヌ
ネ
ノ
ハ
ヒ
フ
ヘ
ホ
マ
ミ
ム
メ
モ
ャ
ヤ
ュ
ョ
ラ
リ
ル
レ
ロ
ワ
ン
・
ー
一
七
三
上
下
不
世
东
中
丸
主
丼
久
之
乐
九
也
事
二
五
井
京
人
仁
代
令
份
伊
会
伟
位
佐
作
你
佳
俊
保
信
元
兄
先
光
党
全
八
公
六
内
军
出
分
初
利
制
前
力
加
動
化
北
十
千
华
南
原
友
古
可
台
号
司
合
吉
同
名
后
向
君
周
味
和
品
員
唐
喜
嘉
四
回
国
國
圍
園
土
在
地
坂
城
堂
場
士
夏
外
多
夜
大
天
太
夫
奇
女
好
姫
娘
娱
子
字
学
孫
學
宇
守
安
宗
官
定
宝
実
宮
家
宿
密
寺
寿
将
小
少
尚
尾
屋
山
島
川
州
工
市
布
帝
師
常
平
年
府
度
建
式
张
張
彦
影
役
御
徳
德
心
志
忠
思
恋
情
想
愛
成
我
战
戦
所
手
技
放
政
教
文
新
方
日
早
明
星
春
是
時
普
智
暨
書
最
會
月
有
服
朝
木
未
本
朱
机
李
村
条
東
林
校
株
桂
桐
棋
森
業
楽
横
橋
機
次
欧
歌
正
武
死
氏
民
水
永
汁
江
池
沙
河
法
波
洋
洞
津
派
流
浦
浩
海
清
温
港
源
漢
潜
瀬
灣
火
無
焼
煮
爱
物
特
玉
王
球
理
生
田
由
电
男
画
界
白
百
的
皇
目
直
相
省
真
眼
知
石
社
神
禄
福
秋
科
秘
秦
空
立
端
竹
第
精
糖
紀
結
統
絵
經
線
編
红
级
美
義
者
股
能
自
臺
航
艦
良
色
艾
花
若
英
茶
草
菜
華
萬
葉
藤
行
術
街
衣
西
見
親
视
言
記
話
語
记
语
谢
谷
豆
豪
貴
賢
赤
赵
起
超
越
路
身
車
軍
輝
迷
送
通
速
造
遊
道
達
選
郎
郡
部
都
酒
里
重
野
金
鍋
钱
長
长
門
間
阿
陈
限
院
陳
陽
隊
雄
集
雪
雲
雷
電
青
非
面
韓
音
風
风
飛
飯
餡
香
馬
马
高
鬼
魔
鳥
鳳
麻
黃
黒
龍
�
𒀭
the
to
and
of
you
in
##s
it
that
is
for
your
with
on
this
was
as
we
do
are
be
have
or
can
not
if
he
##ing
at
what
they
by
but
from
me
an
##ed
re
so
she
my
will
all
one
there
about
her
like
##d
out
just
when
know
up
get
has
more
no
##a
##ly
his
time
them
who
##e
which
were
how
did
people
here
ll
also
their
##er
now
##y
some
would
him
may
other
had
want
been
make
##t
these
well
then
think
go
see
##n
into
##r
ve
right
first
could
our
need
us
where
##o
than
because
take
after
two
back
only
##al
should
over
use
got
way
going
new
its
good
##l
any
##i
help
most
##es
let
even
come
very
look
something
down
why
such
before
does
world
work
years
many
day
life
said
say
find
much
used
really
tell
ca
##on
##m
too
being
through
##h
those
off
things
around
water
while
little
man
##in
never
give
##k
##ic
still
gonna
keep
try
made
feel
long
place
sure
##ation
three
might
year
same
between
yourself
every
##u
##ion
##ia
##ers
doing
thing
each
during
name
##p
put
##g
best
own
part
##an
another
home
both
##c
person
last
##us
better
talk
away
different
##ment
love
called
body
again
high
under
##ting
##ce
since
until
great
mean
found
old
must
yeah
family
oh
always
number
thought
using
system
women
known
actually
few
##le
##th
##z
china
without
am
someone
important
##te
anything
once
10
school
call
start
example
often
okay
left
states
ask
##ry
however
##or
show
##ity
united
next
lot
##ive
open
end
later
south
change
maybe
##b
together
##rs
##ian
##nt
born
night
000
second
small
enough
human
city
##ness
ever
house
against
##re
##able
side
done
kind
state
getting
##en
within
##ate
government
father
told
days
times
including
cause
wo
##um
leave
making
food
##ies
north
children
##2
set
area
stop
today
money
big
group
country
include
everything
came
##ist
able
skin
friend
war
having
power
##ge
less
nothing
mr
looking
others
believe
care
##ine
##tion
##ted
national
trying
blood
four
##ter
head
##is
doctor
men
##ra
minutes
yes
##ary
hair
##ne
become
remember
based
live
guy
order
point
stay
instead
real
face
five
friends
mother
##ling
##1
took
##ble
several
##0
control
top
american
understand
means
university
please
hand
bad
wanted
case
##f
already
idea
company
else
working
mind
party
went
information
##st
problem
game
move
hard
health
coming
least
social
20
possible
kill
taking
hey
seen
room
play
light
##x
president
talking
##se
business
million
##man
##ie
whole
became
##w
##3
##ch
free
early
laughter
##ar
common
##ty
run
form
though
##ma
type
woman
music
process
##6
hours
god
public
girl
##ts
job
sometimes
##mi
##ure
avoid
de
large
##ism
team
##na
course
treatment
##4
##et
international
turn
##ized
general
following
usually
west
started
30
line
close
child
bring
east
guys
heart
sorry
death
##ck
pain
half
##v
dead
story
due
makes
saw
vietnam
##de
young
##tic
along
air
car
ago
poland
chinese
yet
white
hear
oil
15
son
either
##ous
thinking
##age
support
wait
##est
wrong
probably
far
##ve
low
likely
week
hold
list
countries
age
##ct
film
local
according
district
fact
##8
law
##5
red
history
inside
sir
especially
phone
single
months
self
##7
create
bit
saying
full
political
energy
future
whether
check
level
##ring
##ent
eat
needs
german
12
earth
given
research
everyone
black
century
language
space
hands
book
computer
##9
data
rather
lost
outside
##ng
six
killed
##ro
brain
click
happened
##ated
##la
##ant
add
matter
rights
eyes
learn
soon
drug
##less
##id
sleep
term
video
club
word
says
boy
experience
released
##ur
consider
village
plan
baby
central
although
percent
comes
cut
late
meet
major
development
building
risk
alone
wife
question
relationship
series
thank
past
listen
dog
lead
study
read
100
among
medical
works
heard
almost
miss
problems
town
##ful
##il
morning
certain
per
short
rest
police
anyone
##red
##as
effects
natural
longer
##ol
clean
reason
taken
pay
available
knew
feeling
symptoms
pretty
front
military
##it
##ta
##ial
##os
##ping
across
true
##ations
began
nice
##ating
die
office
polish
western
##ging
ready
brother
watch
dry
clear
third
special
class
safe
march
role
allow
ways
eye
hope
period
happy
behind
near
asked
looks
uh
present
main
attention
km
died
similar
result
disease
positive
##el
choose
living
##ged
position
gave
security
##ka
population
non
art
deal
happen
fine
king
test
cases
2016
wants
moment
##ance
sea
sense
weeks
##ally
fight
areas
write
words
hot
lives
break
myself
games
hell
##ors
save
amount
service
##der
increase
star
worked
chance
##line
kids
##ions
cat
focus
##ke
##way
##da
##ding
2011
parents
cold
member
easy
strong
daughter
economic
difficult
pressure
season
2015
personal
remove
act
##at
america
education
lower
situation
2017
2012
##ns
middle
al
##land
located
products
##nce
market
june
weight
dad
2014
technology
won
gone
contact
follow
##ny
center
partner
walk
further
##cy
50
##me
cells
physical
questions
english
trust
program
##ning
exactly
whatever
##ze
japan
drink
running
speak
11
named
specific
##cing
##ps
news
buy
##ization
##ments
quite
africa
gets
##ize
hit
science
model
##ral
simply
##tor
media
##one
cell
force
sun
online
reduce
higher
##sh
provide
release
land
2010
prevent
region
step
capital
changes
september
simple
october
##ton
goes
key
community
2018
developed
##ile
members
action
sound
##ds
held
##led
wanna
project
2013
court
french
build
normal
feelings
levels
treat
##sing
field
july
built
negative
stand
##am
file
19
plant
studies
answer
cancer
january
itself
deep
paper
song
april
##les
needed
couple
##ence
apply
healthy
august
box
##ll
effect
size
share
25
completely
county
date
above
met
##ut
created
society
production
##ped
return
brought
growth
design
##ide
fire
store
total
drive
husband
various
access
color
product
effective
##rate
send
army
sign
##ue
married
quickly
surface
##ki
considered
november
16
ice
playing
approximately
hurt
practice
stuff
hour
systems
writing
sit
2009
spend
figure
former
activity
moving
##to
door
december
##go
patients
john
14
trade
minister
entire
street
##ities
takes
fish
bed
18
parts
guess
received
pick
continue
exercise
related
gotta
2004
themselves
mom
current
lose
##ual
value
york
heat
serious
giving
upon
global
results
perhaps
##ious
begin
protect
13
feet
girls
kid
sent
foods
beautiful
month
popular
ground
published
knows
regional
issues
##ned
tried
interest
seem
green
final
##king
ones
##tive
cost
ii
students
foreign
shot
sister
fun
24
##ries
stress
2008
hospital
led
cup
species
offer
japanese
fall
wear
##io
##up
african
gmina
##ium
moved
internet
touch
dark
europe
loss
tonight
acid
culture
rate
##ical
choice
evidence
blue
generally
press
addition
training
fear
cover
minute
seems
behavior
seven
daily
la
planet
windows
necessary
administrative
afraid
february
caused
##ms
##ls
account
##ration
select
infection
##rt
college
types
source
bottom
career
professional
conversation
somebody
cool
piece
ai
finally
tv
warm
television
telling
sort
album
services
##hip
screen
wish
mouth
groups
asking
meeting
##per
##tes
window
##ish
environment
##son
##ving
lies
2007
##dy
particular
truth
mass
river
##ga
##za
ok
2006
eating
fast
involved
supposed
throughout
happens
original
modern
potential
himself
temperature
drugs
page
movement
written
played
tomorrow
##nts
version
served
imagine
##bs
##om
picture
worry
view
record
conditions
##ins
address
changed
code
grow
nature
produced
india
activities
sex
everybody
goal
##ee
sold
method
companies
voice
active
dr
ability
typically
##un
event
reach
##ina
immediately
17
numbers
eight
voivodeship
##ists
2019
shall
director
park
40
associated
individual
private
report
terms
beginning
trouble
##ier
site
##ad
##ca
range
##ey
decided
image
network
starting
title
places
shows
notice
search
summer
text
directly
events
ten
attack
##sion
post
animals
poor
management
thoughts
leaving
alive
solution
lady
british
drop
##by
develop
billion
football
damage
appear
female
waiting
diet
##ric
official
##izing
message
degree
department
learning
thus
bank
increased
worth
particularly
stage
##sa
##ow
##do
european
##ir
##ri
books
turned
goals
decision
shown
machine
##rd
##va
growing
currently
felt
forget
##my
produce
##ings
patient
reported
policy
material
location
tree
towards
designed
##no
##ction
discovered
road
##ants
win
forces
seconds
##ung
ideas
anti
france
gun
asia
organization
response
award
significant
mine
announced
wall
easier
plants
##rn
##uring
island
wrote
co
forward
quality
regular
union
unless
option
gas
medication
association
interested
track
issue
northern
sugar
##ko
anymore
complete
eventually
looked
##ons
##ward
extra
seeing
tap
##ner
below
##ron
stories
alcohol
difference
causes
theory
pull
animal
##ded
gold
spent
##ley
largest
helps
worse
included
nobody
software
##ler
##ise
##ible
note
improve
larger
comfortable
2005
tea
described
##ria
condition
fat
complex
established
thanks
table
points
russian
square
whose
function
variety
enter
names
kilometres
sexual
##ya
clothes
wash
##res
##lin
coffee
multiple
humans
##rian
##ver
structure
legal
easily
##tation
industry
korea
style
recent
london
price
freedom
stars
average
##ves
signs
agent
church
##ster
founded
##istic
league
standard
forms
crazy
loved
round
##ay
huh
master
spread
onto
##her
##ss
determine
##lation
vietnamese
##day
21
keeping
greater
memory
interesting
traditional
protein
peace
success
rules
character
leading
board
rule
basic
card
base
##ice
straight
economy
##ular
lived
##ha
approach
app
##rated
sounds
nations
secret
germany
powerful
visit
applause
queen
perfect
dance
##cent
floor
sales
device
direct
options
website
therefore
despite
severe
gives
##vation
yours
##co
chief
enjoy
kingdom
leaves
prison
##lo
##ics
player
performance
##sive
##ite
explain
##pe
administration
learned
##fied
opportunity
section
cross
##ification
anyway
##ability
allowed
letter
movie
russia
##ang
object
##tle
rich
added
##ica
boys
meaning
expect
respect
financial
followed
decide
##ians
apple
##ff
##ved
muscle
standing
##ft
bacteria
station
salt
slow
200
##li
bar
ahead
##ory
##ters
double
older
features
subject
lord
therapy
smaller
soviet
22
glass
chemical
##j
60
resources
button
knowledge
lines
##des
radio
includes
finished
rock
speed
scale
division
stick
earlier
soil
##im
2000
fresh
beyond
primary
sitting
##bing
recently
##hi
##be
##sis
becoming
##cted
depending
pass
500
workers
##ip
require
captain
dinner
shape
##ures
band
bag
birth
southern
wearing
##ai
arabic
reading
uses
##time
twice
distance
menu
meant
##ks
commonly
depression
allows
miles
##ination
honey
somewhere
content
##ot
##zed
kept
##bility
ship
developing
professor
dangerous
arms
##gan
syria
##ator
successful
ensure
teacher
2003
impact
heavy
nearly
##ably
##ba
pomeranian
23
realize
sick
walking
aware
##zing
lack
speaking
calling
##ets
happening
match
additional
##lf
watching
##ard
article
returned
##pt
civil
catch
except
battle
foot
brand
command
nine
wide
languages
individuals
lie
shut
holding
##ology
reasons
##logy
universe
leaders
train
dream
accept
dollars
showed
limited
anybody
medicine
sell
milk
anxiety
##ug
em
##bed
join
favorite
actions
##gation
acting
putting
contains
purpose
responsible
##val
feels
tend
items
hate
##ase
occur
##ni
##ified
contain
corner
##ulate
studied
province
climate
skills
##work
museum
finish
spot
reaction
actress
paid
##tions
##cks
##gs
remain
##ram
##ill
digital
handle
travel
required
mental
border
leader
plastic
plans
virus
via
##tors
breathing
promise
changing
becomes
recognize
cultural
republic
highly
toward
drinking
##ok
safety
hang
legs
upper
##lies
arm
fruit
unit
##ery
council
separate
##als
##rin
##oid
surgery
emotions
instance
##nd
strength
student
huge
fighting
ancient
fully
##ud
boss
combination
thousands
medications
ocean
meat
programs
committee
ass
killing
causing
brown
shoot
camera
jobs
count
reality
cream
generation
charge
##ress
eastern
none
iron
##wa
serie
otherwise
email
quick
web
trial
finding
understanding
castle
push
mix
st
formed
seek
serve
broken
shoes
identify
male
fit
italian
target
carry
##ised
awards
cities
helping
materials
mark
passed
##ris
objects
sources
slowly
##ient
moon
rise
funny
lots
believed
google
teeth
pop
##ition
influence
##board
##pa
nation
sweet
##inal
religious
##que
2001
amazing
essential
##men
caught
challenge
neck
creating
continued
nuclear
smell
26
appears
prime
burn
mission
mrs
draw
property
arts
yellow
placed
##cular
soft
authorities
throw
interests
27
##ans
brothers
defense
el
joined
2002
##ball
opening
appeared
turns
helped
teach
values
highest
setting
bill
mostly
nintendo
##ative
artist
missing
calm
opened
ring
independent
2020
officer
##ade
emotional
##ties
supply
nose
relationships
##han
28
maintain
competition
##out
famous
speech
reached
slightly
##ify
paris
##ger
san
wind
calls
##ution
failure
costs
affected
fill
steps
flow
##ham
institute
wake
##imate
##mb
previous
etc
stomach
construction
ourselves
schools
closed
flight
anywhere
korean
muscles
waste
##nal
bottle
factors
length
families
ran
repeat
##ino
congress
effort
methods
damn
sports
##ages
##sed
elements
##mer
apart
trees
##ak
##rating
scientific
examples
pieces
compared
library
ministry
files
willing
treated
emergency
federal
justice
van
raised
useful
##ily
showing
careful
marriage
presence
liver
protection
plane
approved
bodies
australia
images
remains
users
singer
vegetables
##light
carbon
measure
##ess
##lines
recommended
solar
##tt
england
prepared
taught
whom
faster
connected
ended
units
rice
ball
breath
progress
map
seat
clinical
writer
race
expected
violence
##wood
super
feed
royal
##ture
welcome
performed
secretary
laws
prize
spanish
direction
properties
planning
infections
records
tools
core
notes
appointed
block
james
clearly
provided
##ened
##nes
losing
mary
saved
beat
novel
hole
##ick
phase
grand
metal
switch
##mic
tissue
details
audience
channel
introduced
gain
##op
crime
washington
commercial
fly
statistics
communication
##ura
connection
##ana
foundation
canada
##tal
listening
mobile
00
chest
players
status
latin
receive
stupid
unique
campaign
honor
##ories
overall
##uan
clothing
tests
beijing
##ah
##od
bigger
california
jack
politics
election
raise
host
##ives
##ury
stopped
fix
situations
##ten
benefits
grew
##rid
##ber
elected
exist
1999
##aging
##late
kinds
um
##sm
bird
pictures
requires
herself
possibly
##ees
signed
application
david
magazine
staff
sides
smart
ride
increasing
operating
indian
##ew
##ld
eggs
referred
schedule
weapons
extremely
models
attempt
hotel
critical
proper
applied
confidence
##ul
hong
appropriate
prince
failed
festival
##ulation
dogs
layer
concept
selling
george
dna
bureau
basis
revolution
balance
hide
user
cycle
forced
angry
citizens
worried
##een
murder
bridge
fourth
lucky
pet
purchase
americans
till
democracy
occurs
closer
task
pre
scientists
stores
##ire
songs
mistake
##ky
suggest
##ray
29
covered
connect
removed
##ivity
confirmed
fever
maria
spending
##ses
zero
devices
previously
facebook
counter
originally
appearance
frank
judge
trip
vice
oxygen
limit
mood
greatest
starts
environmental
path
broke
download
szczecin
conflict
specifically
efforts
##ied
crisis
respond
##hy
80
##rus
warsaw
honest
covid
disorder
mid
relatively
garden
talked
completed
vision
##rrow
helpful
juice
beauty
communist
worst
wonder
##cies
relations
bought
collection
frequently
stock
zone
income
hundred
acts
##ius
1998
officials
##mate
vitamin
recorded
discuss
gently
affect
leg
literature
advice
operation
lying
prior
alternative
winter
##dia
##ney
achieve
icon
mixture
fair
sleeping
defined
thinks
biggest
fell
review
scared
soap
labor
quiet
decisions
liquid
motion
knowing
##cts
goods
wet
##ited
adding
perform
leadership
michael
##thy
photo
##logical
hall
##ose
spray
truly
aid
equal
spring
##ogue
##cle
##med
normally
90
certainly
scene
##lar
##mine
uk
impossible
actor
kong
demand
##ong
##py
horse
hundreds
##atic
analysis
investment
islands
internal
##nia
##rine
census
##ub
nervous
painting
likes
parties
stone
##cus
##ctor
basically
smile
agreement
empire
##side
focused
rid
##bo
glad
##set
bone
ma
academy
benefit
pregnant
statement
dress
camp
majority
##ship
shared
link
widely
##ake
escape
tax
wonderful
##ple
##ti
experiences
instructions
kiss
organizations
plenty
prepare
rare
##lan
300
agree
exchange
##mia
##ao
plus
##shed
##ach
##rge
boat
tells
##mp
claim
mexico
galaxy
initial
seeds
blow
wedding
##che
driving
cook
mg
feature
##ast
1997
ends
busy
magic
boyfriend
industrial
manage
taste
journal
volume
##ert
##uit
fault
pregnancy
##our
films
lawyer
##gy
capacity
##its
meal
paul
nearby
doctors
pacific
##over
##une
##rity
##ulated
##uck
copy
mountain
tank
display
##ncy
italy
##ctive
forever
visual
princess
conference
credit
leads
edge
branch
claims
dying
walls
relax
naturally
democratic
##room
allowing
reports
##ges
tired
cars
powers
techniques
fingers
settings
strategy
manager
strange
thousand
##bly
1996
plays
diseases
bringing
##tte
##ump
projects
##ior
colors
dear
degrees
forest
label
##ker
greek
##ican
mainly
stuck
##rates
evening
intelligence
equipment
concerned
ex
coast
gift
##ute
bowl
cats
throat
pro
chain
directed
towel
excuse
peter
##house
port
bet
oral
suddenly
anger
##acy
1994
31
wound
1995
firm
seriously
correct
##ates
resistance
injury
sky
absolutely
agency
3d
artists
45
##au
joint
dose
lab
actual
criminal
factor
domestic
##gate
opinion
pair
##gent
70
reduced
##ered
##ound
stated
##em
entertainment
responsibility
##fy
weather
decades
prove
##ox
adult
##ils
fellow
sensitive
##ying
400
##matic
provides
##and
asian
brush
cooking
lake
proud
senior
increases
signal
terrible
##rative
survive
upset
##lt
bleeding
los
regularly
authority
numerous
##ep
pot
victims
characters
totally
##old
exposure
hearing
luck
empty
realized
attended
syndrome
unlike
assembly
engineering
express
favor
##mon
##ces
computers
##fully
expensive
##00
flat
initially
##oms
##uation
receptor
##ining
executive
hero
historical
appreciate
solve
threat
##den
##wo
hi
identity
obviously
applications
jump
tool
##af
##care
soul
ngc
sad
##ome
launched
letters
remind
advantage
metres
##cture
##ita
ingredients
cleaning
faith
1990
ear
operations
advanced
testing
##mo
photos
bear
kim
nor
replace
uncle
spoken
turning
##itis
thin
##hen
primarily
staying
##ole
carefully
tiny
transfer
vote
wine
##ji
youth
shower
##zer
silver
root
indeed
properly
cast
##burg
##ther
patterns
chicken
contract
chart
native
orders
solid
crush
launch
begins
document
##graphy
girlfriend
##tain
arrested
ray
minor
##rio
capable
cash
##ern
##hood
measures
teams
##tis
##ural
replaced
##pine
debut
estimated
infected
##table
matters
##nda
stronger
worldwide
##ume
dealing
paint
calories
encourage
##ality
chair
fashion
##art
##cia
##ride
##nel
breaking
##ined
grown
##ony
mac
##bal
enemy
##iness
circle
pack
shift
birthday
entirely
##ured
interview
studying
winning
gender
tape
bright
cutting
whenever
letting
arrest
millions
##berg
weak
1992
buildings
nguyen
affairs
serving
ah
secondary
victim
neither
shop
sodium
##q
##ula
controlled
##chi
perspective
##iate
treatments
cards
amounts
filled
owned
soldiers
##right
agents
personality
sites
wild
palace
resulting
suffering
combined
doubt
secure
##uing
typical
##ek
##gle
accident
##win
gentlemen
##pped
background
chronic
containing
suppose
##let
##water
prefer
mixed
35
##rant
deputy
profile
abuse
remained
selected
##lon
##rey
##cs
lunch
routine
lay
represented
surprise
definitely
medium
planned
teaching
##rial
destroy
harder
syrian
tough
destroyed
keeps
paying
##tory
concern
rose
concerns
flying
fruits
ladies
password
offered
danger
##nus
author
breast
immune
##cious
entered
organized
existing
##ption
##nse
fluid
daddy
governments
hello
promote
killer
studio
##ford
1989
identified
smoke
bath
observed
##ntal
evil
##rm
##via
bus
##ja
##low
creative
finger
sharing
##ming
promotion
rinse
##phere
apartment
extreme
politician
##tention
atmosphere
guard
##bc
burning
confident
journey
##ency
commission
supported
com
##rk
formula
institutions
##tary
describe
involves
##urs
desire
trained
breathe
processes
flowers
pattern
adults
##lated
##nk
dreams
younger
regions
##rogen
lights
##use
dish
roots
customers
wave
formation
##rew
opposite
19th
iii
tested
##place
##tch
1993
communities
expression
harm
noted
rates
weird
##gon
carried
roman
yesterday
classes
##wn
remaining
besides
brazil
exact
managed
1991
agreed
visible
##yah
functions
guns
nerve
fields
kitchen
chosen
lee
##graph
egg
wood
challenges
facing
hydrogen
mad
##uted
closely
folder
mentioned
happiness
marketing
##ening
era
##ov
arrived
southeast
spirit
massive
powder
smoking
##ents
##ich
##ua
awarded
reducing
mode
engine
giant
birds
advance
episode
##ature
##mes
listed
##ane
##mous
bomb
##ain
##uate
experienced
trials
##nie
centre
##aries
spain
represent
william
##ix
##kes
prices
robert
##ell
##form
##uration
proposed
messages
newspaper
##icial
determined
employees
urban
##rick
championship
seemed
witnesses
##east
relative
storm
cm
religion
settlement
grab
mirror
route
marry
storage
commander
missed
painful
##ap
##head
attacks
forgive
manufacturing
height
category
engage
technique
annual
##iling
christmas
context
vinegar
##ously
##sia
roll
traffic
##lla
parliament
##port
##ran
armed
promoted
distribution
permanent
constitution
##down
##ivated
cheese
##ab
##ulating
grade
aim
reactions
mountains
theatre
##xide
meals
providing
airport
choices
policies
format
inner
solutions
##usion
ordered
##mark
constant
orange
##ald
##are
everywhere
fixed
friendly
##ways
buying
markets
request
##ope
mention
##cate
##ime
20th
electric
jesus
assume
effectively
golden
christian
runs
teachers
container
vary
##iled
##zon
literally
sending
suggested
tight
##uts
cotton
laugh
unknown
##ching
guide
##ack
romantic
territory
compound
farm
32
significantly
##oe
musical
##stic
mm
##ception
##di
swelling
##mal
differences
dust
emperor
exercises
relief
##30
falling
##chy
tom
##ically
architecture
restaurant
tasks
investigation
##fa
##lic
accounts
hanoi
chances
##lish
##gen
thick
##tate
fifth
##ridge
ted
##vin
partners
tower
valley
##uke
android
bathroom
depends
obvious
pleasure
treating
trigger
recording
##pose
complicated
##ders
sam
picked
shirt
hiv
invited
split
spoke
##ac
suit
saint
##ato
##sions
experiment
linked
##inh
organic
possibility
standards
##eo
microsoft
navy
dirty
##press
mask
print
apps
owner
streets
excess
exposed
ultimately
##nation
hanging
##yl
recognized
soda
##nate
consequences
cooperation
drama
illegal
procedure
##formed
chemicals
immediate
##net
##ws
beach
machines
afternoon
dropped
opportunities
suicide
##ign
##og
presented
##ig
##ore
baking
technologies
##dle
##mond
##logist
ben
platform
quit
##rator
##cin
businesses
fuel
medal
drops
pan
##ression
answers
##ston
del
noise
videos
##ches
theater
##ering
creation
external
refer
unable
tour
excited
sale
##ators
##ese
faces
producing
##mar
struggle
twenty
fiber
philippines
sets
dude
knife
pool
bread
origin
shaped
##ced
##ens
extended
familiar
rapid
decrease
net
poetry
urine
##field
##iest
##ked
##ude
##well
chile
##night
##ological
1945
increasingly
##box
officers
un
achieved
bunch
positions
##urse
##rupt
buddy
##ust
movies
##20
1988
sentence
##vo
independence
risks
##oids
houses
usual
##erial
rain
clock
obtained
##ame
##bel
strike
##ii
charles
mistakes
strategic
##lu
planets
##ez
##uming
occurred
rub
blind
components
convention
pour
cbs
holds
nail
tongue
adopted
cloud
therapist
##si
loose
decade
edition
periods
aside
cloth
subsequently
##dies
hiding
##town
genetic
##gard
##int
##rse
homes
unfortunately
rural
olympics
parent
walked
##osis
illness
monitor
moves
structures
surprised
##ae
##bi
##nding
producer
aircraft
importance
intended
surrounding
contrast
discovery
sector
transport
researchers
##gin
##iles
##len
##po
versions
supreme
##40
mild
##tered
##ght
fake
##lock
inflammation
1980s
earned
puppy
concentration
mayor
truck
##book
beer
##itive
##rous
fan
##ats
documents
largely
customer
liked
##roll
officially
indicate
singing
vessels
##ars
##nis
##ob
locked
mess
stable
antibiotics
biological
##ission
lock
##ried
##ław
babies
henry
drinks
kidney
lift
##ias
saving
suffer
meters
suggests
##mination
damaged
dating
factory
suspect
##sist
constellation
duty
experts
##ven
existence
heads
tone
washing
alongside
hidden
quarter
##cked
##ull
committed
mechanism
substance
accepted
claimed
##eving
##pping
profit
refers
calcium
##gue
##ivation
##ract
##uin
1986
butter
##lands
recommend
divided
insurance
1987
inspired
jail
physics
##iary
breakfast
mike
sight
vehicle
trick
##ale
applying
coat
inch
sample
sees
technical
gotten
paste
##rict
driver
smooth
continues
harry
lemon
noticed
##vised
protected
rapidly
waves
blame
ms
supporting
centuries
disorders
hungry
weapon
##gated
##rc
##ids
##ski
consumption
##dor
##rist
definition
install
rising
shoulder
combat
guilty
nigeria
##lings
equation
item
##lour
communicate
crew
pulled
##active
##ien
carrying
catholic
##ama
##ntial
75
detective
##tical
academic
asean
championships
colombia
corporation
##pes
mail
##ipe
establish
memories
troops
entry
hormone
winner
wrap
circumstances
cops
figured
##ides
##gic
appointment
competed
guest
shooting
granted
uncomfortable
youtube
##ax
##fe
childhood
introduce
understood
equivalent
resolution
roof
##oo
formerly
healing
featured
nausea
##ply
cop
sharp
hardware
sisters
##nic
constantly
consists
governor
potentially
##els
##ui
1985
afford
sing
brings
##itch
##row
1990s
coronavirus
##vision
diabetes
##ken
##ums
promised
ships
##wards
gods
neighborhood
##air
##rams
satellite
##asing
chose
sand
taiwan
dancing
experiencing
headed
##rad
asleep
fiction
recovery
1980
budget
prescription
derived
bite
gradually
browser
row
bc
comfort
movements
deeply
heading
intake
##sy
temperatures
##rmal
martin
##tail
buried
fishing
graduated
injection
roughly
##12
jim
##bert
##cel
##nded
formal
##ones
doors
##ye
oils
##ex
##hew
fundamental
maximum
revealed
somehow
bond
cry
egypt
fought
views
apparently
cable
ending
proteins
imperial
mars
massage
offers
debt
##11
gene
roles
warning
fda
##aming
##try
iphone
jewish
##tra
inches
##ace
##bor
##ci
respectively
snow
assistance
fail
proof
necessarily
orbit
peak
topic
°c
##irs
##lip
client
license
reward
tokyo
##back
##ibility
papers
hat
weekend
##car
behaviors
dragon
fund
perfectly
##10
##gi
aspects
##amine
##rent
electronic
##las
##rone
console
element
keys
marketed
##hone
##rals
diagnosis
engaged
figures
##heat
##key
ears
##48
##raction
hoping
sequence
stadium
whereas
##icate
automatically
remote
rome
vaccine
##ciation
battery
drawing
swimming
thomas
transition
##ara
blocks
##pressed
conducted
##50
survival
##hes
##rap
1975
##vian
bay
ha
reference
##tein
##uated
britain
ease
moments
##lity
hill
returning
victory
150
difficulty
gained
relieve
witness
##paring
1979
plate
banks
removing
tradition
trap
##und
elections
excellent
stem
##lving
##vated
incredible
performing
pounds
##iated
##ico
1970s
articles
expressed
falls
##lls
composed
reform
##cating
angle
deserve
owe
participated
radiation
##rable
##yan
ml
regarding
joke
naval
steel
##ami
cape
ho
issued
latter
philosophy
##cio
##olar
##oon
coach
holes
loves
recognition
candidate
gate
tip
##airs
##ree
##wing
da
founder
portion
physically
deaths
improved
##ines
##ished
##rade
1983
detail
##ads
1984
audio
charges
particles
48
fired
reaching
score
principles
richard
flash
##inary
##una
shopping
toxic
manner
##nted
frame
frequency
##isation
regime
stands
ideal
nuts
##lle
density
successfully
##ility
cultures
##bia
##bar
##tics
facial
##he
##kin
corruption
electricity
##pse
component
contribute
oliver
swear
deliver
moisture
angeles
forgot
##izer
holy
##lue
##nder
##ren
heal
shock
##pel
##pers
##vert
##unce
##rations
essentially
exists
latest
##raine
shortly
steam
##ctions
##tone
incident
receiving
symbol
##have
package
supplies
universal
##omy
tall
waters
##gal
loud
occupation
##zy
differently
lips
relevant
turkey
focusing
pages
produces
representative
seeking
##onia
gentle
wondering
##hetic
assistant
desk
drunk
florida
passing
journalist
colonel
false
kick
##vention
joe
lean
raw
sauce
activist
admit
desert
load
suffered
##rical
##vis
minimum
tie
steal
1982
dates
sudden
thailand
##ience
contemporary
ill
installed
receptors
##cated
##more
##ini
##tained
attached
prisoners
##inity
economics
talks
intense
unusual
##sian
##yn
classical
editor
offering
visited
##icing
##ville
acquired
texas
matches
##ault
##tude
##ule
pure
##nny
##strate
sunlight
temporary
valuable
##ef
forth
ph
prominent
spots
temple
##ret
lungs
monster
pills
##oma
##vations
deeper
potassium
explore
fabric
bound
collect
ordinary
printing
stain
##gia
##ove
##rds
dynasty
pants
##cco
evolution
similarly
hurry
##ched
max
##uce
consumer
mi
##tric
broad
humanity
dedicated
flag
bones
declared
tournament
soak
column
electrical
##ctural
##cles
argument
##aking
##ulous
sunday
acute
chairman
feeding
index
participate
server
##rium
moderate
##lly
cure
facility
stood
##lished
##rts
##we
belong
dirt
frozen
interaction
moral
creates
poverty
##mented
charlie
##ec
copies
physician
wipe
##cer
##rily
classic
rooms
seed
##ou
motor
opposed
rescue
##lor
attend
moscow
##ager
##jo
personally
farmers
habit
vomiting
##alty
activists
forming
##lam
##lied
additionally
##lant
##lew
literary
networks
##hed
friendship
##dd
##erry
##iss
alpha
le
processing
##cope
attacked
excessive
nurse
transferred
##uting
capture
limits
reduction
opposition
poet
principle
crying
habits
involve
exciting
represents
singapore
chocolate
sport
##coming
##zz
disaster
champion
practices
joy
##ored
supplements
agriculture
fool
nominated
##ntly
##ues
entering
governorate
##21
##dom
hired
##25
##ruction
1960s
1976
600
charged
layers
phones
writers
##mit
##spoon
##ucks
distinct
presidential
##isting
plain
permission
##ntine
##ules
ad
lung
mathematics
sub
subjects
vast
##fuse
magnitude
naked
##ail
##graphic
##rix
adjust
wealth
##can
##dan
##name
connections
##42
##cking
##49
##unction
cups
enzyme
israel
spouse
##43
##46
injured
mouse
nutrients
##rry
##wer
captured
talent
tropical
##pire
discussion
multi
##47
##named
everyday
faced
finds
inhibitor
locations
outer
##iro
##posal
ambassador
##ially
attitude
branches
cd
incredibly
innocent
smith
##gh
bacterial
##hale
breaks
cute
oldest
sword
##pin
belief
##hu
##tan
marked
worker
##hibit
##gration
##pic
##rain
aggressive
artificial
consult
notable
##door
##fying
##iac
bob
ghana
grant
ages
sat
semi
occasionally
##ays
##gies
##illa
##sit
##uel
conduct
measured
##craft
1st
crown
expert
fairly
##iva
goddamn
##unk
underlying
virtual
beta
claire
courts
defeat
##bage
##ort
math
stayed
##kie
cake
centers
maritime
rank
antibiotic
debate
skip
##nsive
jehovah
shadow
##hing
##lade
binding
murdered
##ceed
nails
purposes
sheet
##lets
allergic
interact
rabbit
checked
theme
titles
##cting
##tus
boost
ignore
interactions
burned
gather
pink
wars
##cluded
36
estate
robot
senator
shame
##inger
marine
feedback
meetings
principal
##55
classified
dollar
drawn
##gers
##ror
tab
channels
gay
guards
input
somewhat
##sts
bloody
driven
fears
prescribed
violent
wow
##eon
##lot
aids
##bie
concrete
criticism
eliminate
friday
pocket
vulnerable
##bes
##maging
crash
##loride
##onic
##yer
sore
tail
##isted
##fall
##izes
##rol
800
reflect
stretch
##fusion
sciences
##18
##culate
##ogy
iran
kg
enemies
facts
improvement
tension
##load
characteristics
wire
##ique
##rive
attractive
obama
##uous
approval
opera
##los
stream
wing
##ivate
consistent
flower
signals
frequent
psychological
australian
confirm
##19
##rged
kilometers
##ication
arab
output
rocks
ross
stability
traveling
##last
headquarters
horses
thoroughly
##ising
##ond
1981
accurate
attorney
colleagues
fewer
hunt
##uity
##olic
whoever
##ة
1978
covers
disk
drag
invite
##asant
dutch
episodes
repair
##ect
cluster
finance
grace
argue
##ult
protecting
delivery
desktop
discover
random
statements
ticket
##born
##cial
64
barely
confused
cuba
follows
ratio
##32
##54
##lves
doses
minds
session
krakow
louis
mama
berlin
brief
script
##ifying
##theless
molecules
passion
slide
alex
apparent
conversations
abandoned
acids
funds
surrounded
##pad
##psy
##sage
meditation
vehicles
##hold
angel
##sk
beneath
clay
engineer
graduate
household
speakers
stages
##raits
1973
expand
involving
spectrum
##hic
##rture
##umb
makeup
pulling
serves
##vant
assets
lovely
peaceful
rough
soldier
##hole
##rit
clubs
goodbye
hunting
##kle
##ku
##rat
chicago
##bin
##ea
##tin
adam
ceremony
chris
influenced
pen
watched
##38
1974
beings
cameras
ghost
santa
##bled
extent
francisco
mile
##57
consume
decline
dependent
underneath
##rim
corporate
flavor
rarely
ruled
touching
treaty
##bling
##ulse
seasons
##nses
##nut
##tagonist
innovation
##gular
##hs
brazilian
shell
##min
cage
chi
boundaries
fantasy
glasses
regardless
survey
tracks
##ware
cheap
heaven
pandemic
##52
##bby
ya
##gos
##ho
##ys
argentina
define
emotion
examine
mate
##dp
jupiter
olive
operate
##enger
##quate
##rel
facilities
update
##iation
##point
bedroom
infrastructure
##bilities
##ola
##tum
1972
bullet
compare
crimes
##53
chemistry
diarrhea
overcome
covering
fate
##ari
##dal
##ser
cousin
earn
garlic
minh
##mies
neighbors
##vy
laid
narrow
##ugh
concert
fbi
sons
surveillance
##ional
cognitive
headache
##hin
folks
##gie
bags
panic
scientist
##isa
##otic
99
##ene
##ography
##tants
adverse
broadcast
phenomenon
pursue
##log
##rence
considering
trump
##dar
##than
##vic
attempts
idiot
maintaining
subsequent
tied
consumers
lifestyle
picking
rachel
refused
skill
##lance
##lia
##stream
commitment
extraordinary
shoulders
##eer
##ences
iraq
isolated
societies
weekly
1970
brains
communications
cough
expectations
bike
checking
delivered
explained
inflammatory
printer
##37
##force
##lating
##rier
beans
##rl
critics
shampoo
stole
tons
##rie
fans
venezuela
##ave
##aw
##lm
##shi
alliance
beliefs
default
heavily
##oles
##ually
grandfather
yoga
##35
##iting
##wal
cuban
senate
##ag
1939
controls
darling
joseph
laboratory
seal
sections
separated
trauma
yo
agencies
grains
printed
##nstructed
##racy
##tter
65
##fish
colored
lesson
residents
usb
##zzle
belongs
landscape
nasal
practical
prevention
react
tablet
##arm
##clusion
##mitted
##ock
##pression
##rough
drain
laser
puts
tooth
##mentation
clients
radius
dig
secrets
toys
variable
##abilities
abroad
depth
distributed
gel
prompted
##ona
agricultural
apologize
uganda
##clusive
##igh
##ph
##reak
log
##bra
##ena
##pp
##tel
soup
synthetic
ethnic
telescope
universities
caribbean
organisms
pollution
twitter
##eries
continuing
depend
manufacturer
marks
awareness
defeated
desired
requirements
##22
##hop
compounds
##fit
##itivity
##rust
##ued
institution
protests
##itarian
1977
brave
sake
strongly
underground
33
cabinet
improving
##mist
34
38
55
divide
efficient
linux
persons
pray
ties
##uating
lieutenant
na
placing
speaker
##rait
accused
cuts
toilet
##ots
1944
gravity
respiratory
employee
en
reverse
##eze
##ubble
titled
##etic
##ib
##uo
comment
destruction
invest
administered
bell
belt
cooked
dishes
educational
pretend
rash
purchased
##36
##ites
clicking
dried
introduction
plasma
##ively
1960
shake
survived
##tract
acne
dressed
iv
lifetime
newly
diameter
interior
opens
pushing
##17
##lay
##nan
settled
##ody
##version
aunt
contained
mutual
##nated
afghanistan
celebrate
consciousness
convince
swim
##position
featuring
grandmother
resulted
stroke
##33
##culated
assigned
grass
##case
##oes
##omic
##prise
##uang
molecular
substances
##kers
##ribute
balls
selection
##ffer
##rome
##yed
ants
appeal
canadian
disappear
grain
##ague
acknowledge
peru
presentation
samples
stressed
##rayed
jackson
##pathy
##tly
##writer
sarah
visiting
##ports
##pted
affects
closing
##scribe
intellectual
jean
##ctured
##pi
avoiding
spaces
##14
##istan
tumor
##cho
compassion
eaten
##ller
##spiration
37
tube
biology
description
expanded
##oxide
1968
injuries
minimize
representing
controlling
defend
diplomatic
hits
humor
poison
tech
##fies
invented
nowhere
payment
##tities
##cal
afterwards
competitive
enable
spreading
zealand
##ctic
##phone
begun
joining
kit
outbreak
outcome
removal
##mm
##wski
citizen
phrase
piano
privacy
sixth
daniel
paintings
raising
toy
courage
##grated
##ight
##logists
1971
bother
greatly
##oop
##vent
ceo
forgotten
##28
boxes
gray
##rants
sheriff
combine
joey
##don
error
evolved
expansion
pilot
vet
##macy
##teen
id
threatened
velocity
##pet
##rries
##urn
chamber
collected
fed
meanwhile
sink
genes
sought
##reed
18th
knee
scott
steve
string
##nos
##rf
##using
associate
resource
scan
searching
supplement
##ational
##dication
crowd
punishment
stones
##ribe
choosing
interface
jimmy
revenue
sooner
##24
##ros
1950
housing
knees
texts
##aneous
##hoe
##lus
##ocal
alright
burns
tracking
wanting
##ape
##eem
##rons
##teral
plug
websites
##ass
##inted
##lion
##outs
##tivity
##uine
##vey
domain
monday
stored
##off
arthur
popularity
restore
##ella
##gging
##olite
##ths
1967
absence
dramatic
reduces
reputation
##15
##icle
##zo
caffeine
threatening
##doors
##ignment
##tity
##utical
extension
bars
jews
needle
silence
sufficient
xi
##ason
dairy
##alm
##aneously
##elly
##idad
##imation
champions
nights
rejected
scratch
settle
trace
##nge
christ
commit
loan
netherlands
organs
vacuum
axis
circulation
protest
yard
##34
1962
indicates
sara
shelter
summit
laptop
scheduled
##fficiency
##lave
##weight
anxious
grateful
os
partnership
resistant
ta
##ith
##nish
##nsion
##of
##oth
comedy
gap
rush
sustainable
##ike
##ila
abilities
furniture
industries
##iform
##ira
##ranged
##ualified
##vable
insulin
keyboard
rat
reveal
silent
##itude
anna
awesome
compete
thai
##lank
##mide
##uad
##ux
##wful
42
guitar
taxes
##pation
comments
topics
trading
viral
wise
##formation
##unes
elsewhere
overnight
psychology
registered
saturday
seats
##hical
##so
absolute
funding
hardly
monthly
panel
##duction
##fer
##ngo
##orial
##therapy
##wed
##lib
##nds
##rcy
darkness
extensive
mount
ranked
recover
spiritual
trusted
##ingly
##ocate
asks
comparison
devil
directions
percentage
topical
##ense
attracted
chapter
expecting
nest
objective
preventing
##sity
occupied
##pan
##rms
corn
extend
funeral
hip
kidding
##mise
##oses
##versary
bachelor
chess
explanation
##51
##ows
##umps
2nd
delete
dye
hama
ongoing
ought
##ield
##yard
albums
generate
scrub
sweat
ward
##drated
federation
retired
##lton
##ras
##rise
bleach
detailed
lessons
pepper
rely
##ptic
##tling
mechanical
safely
yogurt
##gulation
##ilt
fold
jealous
responses
stir
tissues
voices
##ppy
dozen
publishing
shares
stopping
unlikely
##hibits
1950s
1969
generated
lied
##kins
##lice
##ructive
##ugs
##zno
mercury
viruses
##lare
chat
experiments
filter
procedures
tear
##vage
collective
li
villages
##rop
##vise
1941
demands
indicated
stations
##13
##ints
et
hence
insects
tears
##gas
##rty
oven
strategies
##prises
##venge
1965
ban
cleaner
grows
obtain
##nging
##olk
##ulations
composition
edward
regret
solo
beef
designer
judgment
witch
woods
##29
##hou
dare
guests
##31
##ples
##rupted
usa
##cise
##graphs
##uk
assumed
discomfort
honestly
##ear
muslim
mystery
observe
wii
bronze
johnson
loving
patch
replacement
##26
##life
advertising
bo
fatty
##crew
##itan
##zine
belly
collaboration
continuous
generations
jane
rent
##hine
dong
guilt
insert
potatoes
strengthen
##heel
##hon
##imulation
dies
historic
irritation
##lery
##nounced
##osed
concepts
disappeared
laughing
programming
strip
threats
##27
##play
##ru
##urrency
##west
1964
bible
converted
intensity
mathematical
regarded
##iency
##rce
admitted
exam
sweden
vital
##iny
##oster
##sty
actors
crucial
junior
proved
qualities
reserve
ruling
suitable
##bian
##diction
##stration
clinic
creatures
grave
inn
kepler
poem
reasonable
silly
##dles
##ladder
##pot
##uake
##ube
derivative
surgical
##vi
employment
exhibition
instrument
instruments
rubber
##fession
##ison
##oh
##round
chilean
francis
neutral
##lars
artistic
contest
lands
prisoner
trail
trapped
##aked
##hase
##zole
processed
tan
##finite
##onal
##yst
allies
harmful
legend
##fle
##mates
##ucated
crack
entitled
gym
pageant
regulations
##list
##ressed
##stitute
250
cap
founding
marie
molecule
nazi
nigerian
pc
slip
##80
##ban
##iciency
alexander
hire
investors
nasa
opinions
rio
##berry
fortune
indonesia
rays
thirty
##nake
addiction
carrier
conscious
designated
egyptian
tries
vitamins
##gnosed
##unch
attempted
bastard
coal
gloves
sacrifice
trash
victoria
##23
##ganize
##gian
##ners
##oked
##perate
1963
diversity
litter
switzerland
synthesis
##iana
##wise
engaging
finishing
lowest
productive
##bon
##pute
##uto
believes
pushed
targets
##bu
##ogist
arrive
convinced
olympic
##icious
##lates
##llo
##visible
39
parallel
smells
struggling
sum
##ean
##raphic
##rite
handling
pig
sized
stolen
##gly
##oy
##rch
##uties
handed
testosterone
##mc
##reen
##rp
95
attract
barry
cambodia
exit
singles
widespread
##itage
ours
plot
transportation
##prising
curious
designs
jose
northwest
reviews
##col
##ift
##rition
##riving
##rth
dvd
efficacy
equally
faculty
spell
stops
##itted
120
1961
extract
initiative
riding
sega
strain
##markable
environments
struck
tends
twelve
##minated
##ork
alternatively
harvard
puerto
residence
terminal
don
elizabeth
priority
threw
##tine
##wice
##zza
hunger
invasion
monica
ups
##engers
traditionally
##ceived
##print
##zi
aspect
dominant
dynamic
employed
##60
##aft
##mann
##mpt
##oline
database
detect
releasing
##teer
germans
runner
sorts
##cipe
##duced
complications
earliest
installation
resolve
santiago
supports
##inch
##mbrane
##osa
##ross
1956
1958
beating
dean
magnetic
marshal
offices
steady
wherever
##ifications
##inist
##pies
##wake
brilliant
meaningful
##isc
##ject
##oral
##tible
##ulator
##urian
enormous
flesh
metabolism
succeed
terrorist
vertical
##ei
##ensation
1959
1966
4th
argued
drives
inc
merely
weakness
##rill
##rsus
##umes
3rd
categories
describes
disputes
enforcement
fallen
fluids
wooden
°f
##caine
##gement
##ranslation
##site
aged
entrance
##!
##"
###
##$
##%
##&
##'
##(
##)
##*
##+
##,
##-
##.
##/
##:
##;
##<
##=
##>
##?
##@
##[
##\
##]
##^
##_
##`
##{
##|
##}
##~
##¡
##¢
##£
##¥
##¦
##§
##©
##«
##¬
##®
##°
##±
##¶
##·
##»
##¿
##×
##æ
##ð
##÷
##ø
##þ
##đ
##ħ
##ı
##ł
##ŋ
##œ
##ƒ
##ǀ
##ǁ
##ǂ
##ǃ
##ǝ
##ɑ
##ɒ
##ɔ
##ə
##ɛ
##ɜ
##ɡ
##ɣ
##ɨ
##ɪ
##ɯ
##ɲ
##ʃ
##ʊ
##ʌ
##ʒ
##ʔ
##ʻ
##ʼ
##ʾ
##ʿ
##ˀ
##ˈ
##ˌ
##ː
##˥
##˦
##˧
##˨
##˩
##α
##β
##γ
##δ
##ε
##ζ
##η
##θ
##ι
##κ
##λ
##μ
##ν
##ξ
##ο
##π
##ρ
##σ
##τ
##υ
##φ
##χ
##ψ
##ω
##а
##б
##в
##г
##д
##е
##ж
##з
##и
##к
##л
##м
##н
##о
##п
##р
##с
##т
##у
##ф
##х
##ц
##ч
##ш
##щ
##ъ
##ы
##ь
##э
##ю
##я
##є
##ѕ
##і
##ү
##ա
##ի
##կ
##հ
##մ
##յ
##ն
##ո
##ս
##տ
##ր
##ւ
##א
##ב
##ג
##ד
##ה
##ו
##ז
##ח
##ט
##י
##כ
##ל
##ם
##מ
##ן
##נ
##ס
##ע
##פ
##צ
##ק
##ר
##ש
##ת
##ء
##ا
##ب
##ت
##ث
##ج
##ح
##خ
##د
##ذ
##ر
##ز
##س
##ش
##ص
##ض
##ط
##ظ
##ع
##غ
##ـ
##ف
##ق
##ك
##ل
##م
##ن
##ه
##و
##ى
##ي
##ٱ
##پ
##ک
##گ
##ی
##क
##च
##ज
##त
##द
##न
##प
##ब
##भ
##म
##य
##र
##ल
##व
##स
##ह
##ा
##ि
##ी
##ो
##দ
##র
##স
##ি
##ක
##ර
##ා
##ก
##ข
##ค
##ง
##จ
##ช
##ญ
##ณ
##ด
##ต
##ท
##ธ
##น
##บ
##ป
##ผ
##พ
##ฟ
##ภ
##ม
##ย
##ร
##ล
##ว
##ศ
##ษ
##ส
##ห
##อ
##ะ
##า
##เ
##แ
##โ
##ใ
##ไ
##ခ
##င
##န
##မ
##ာ
##ေ
##း
##ა
##ნ
##ᄀ
##ᄁ
##ᄂ
##ᄃ
##ᄄ
##ᄅ
##ᄆ
##ᄇ
##ᄈ
##ᄉ
##ᄊ
##ᄋ
##ᄌ
##ᄍ
##ᄎ
##ᄏ
##ᄐ
##ᄑ
##ᄒ
##ᅡ
##ᅢ
##ᅣ
##ᅥ
##ᅦ
##ᅧ
##ᅨ
##ᅩ
##ᅪ
##ᅬ
##ᅭ
##ᅮ
##ᅯ
##ᅱ
##ᅲ
##ᅳ
##ᅴ
##ᅵ
##ᆨ
##ᆫ
##ᆯ
##ᆷ
##ᆸ
##ᆺ
##ᆻ
##ᆼ
##ᆾ
##ᇀ
##ក
##ត
##ន
##រ
##ស
##ា
##‐
##–
##―
##‘
##„
##†
##‡
##•
##‰
##′
##‹
##›
##⁄
##₩
##€
##₹
##℞
##←
##→
##↓
##↹
##⇧
##∀
##∂
##∅
##∆
##∇
##∈
##∑
##−
##∓
##∗
##∘
##√
##∞
##∣
##∥
##∧
##∨
##∪
##∶
##∼
##≈
##≡
##≤
##≥
##⊂
##⊆
##⊕
##⊙
##⊞
##⋅
##⋮
##⋯
##⌘
##⌥
##⎙
##⏎
##■
##▼
##●
##◦
##☆
##☉
##☰
##♠
##♥
##♪
##♭
##♯
##⚙
##⟨
##⟩
##、
##あ
##い
##う
##お
##か
##き
##く
##け
##こ
##さ
##し
##す
##そ
##た
##ち
##っ
##つ
##て
##と
##な
##に
##の
##は
##ふ
##ほ
##ま
##み
##め
##も
##ゃ
##や
##ら
##り
##る
##ろ
##わ
##を
##ん
##ァ
##ア
##ィ
##イ
##ウ
##ェ
##エ
##ォ
##オ
##カ
##キ
##ク
##ケ
##コ
##サ
##シ
##ス
##セ
##ソ
##タ
##チ
##ッ
##ツ
##テ
##ト
##ナ
##ニ
##ヌ
##ネ
##ノ
##ハ
##ヒ
##フ
##ヘ
##ホ
##マ
##ミ
##ム
##メ
##モ
##ャ
##ヤ
##ュ
##ョ
##ラ
##リ
##ル
##レ
##ロ
##ワ
##ン
##・
##ー
##一
##七
##三
##上
##下
##不
##世
##东
##中
##丸
##主
##丼
##久
##之
##乐
##九
##也
##事
##二
##五
##井
##京
##人
##仁
##代
##令
##份
##伊
##会
##伟
##位
##佐
##作
##你
##佳
##俊
##保
##信
##元
##兄
##先
##光
##党
##全
##八
##公
##六
##内
##军
##出
##分
##初
##利
##制
##前
##力
##加
##動
##化
##北
##十
##千
##华
##南
##原
##友
##古
##可
##台
##号
##司
##合
##吉
##同
##名
##后
##向
##君
##周
##味
##和
##品
##員
##唐
##喜
##嘉
##四
##回
##国
##國
##圍
##園
##土
##在
##地
##坂
##城
##堂
##場
##士
##夏
##外
##多
##夜
##大
##天
##太
##夫
##奇
##女
##好
##姫
##娘
##娱
##子
##字
##学
##孫
##學
##宇
##守
##安
##宗
##官
##定
##宝
##実
##宮
##家
##宿
##密
##寺
##寿
##将
##小
##少
##尚
##尾
##屋
##山
##島
##川
##州
##工
##市
##布
##帝
##師
##常
##平
##年
##府
##度
##建
##式
##张
##張
##彦
##影
##役
##御
##徳
##德
##心
##志
##忠
##思
##恋
##情
##想
##愛
##成
##我
##战
##戦
##所
##手
##技
##放
##政
##教
##文
##新
##方
##日
##早
##明
##星
##春
##是
##時
##普
##智
##暨
##書
##最
##會
##月
##有
##服
##朝
##木
##未
##本
##朱
##机
##李
##村
##条
##東
##林
##校
##株
##桂
##桐
##棋
##森
##業
##楽
##横
##橋
##機
##次
##欧
##歌
##正
##武
##死
##氏
##民
##水
##永
##汁
##江
##池
##沙
##河
##法
##波
##洋
##洞
##津
##派
##流
##浦
##浩
##海
##清
##温
##港
##源
##漢
##潜
##瀬
##灣
##火
##無
##焼
##煮
##爱
##物
##特
##玉
##王
##球
##理
##生
##田
##由
##电
##男
##画
##界
##白
##百
##的
##皇
##目
##直
##相
##省
##真
##眼
##知
##石
##社
##神
##禄
##福
##秋
##科
##秘
##秦
##空
##立
##端
##竹
##第
##精
##糖
##紀
##結
##統
##絵
##經
##線
##編
##红
##级
##美
##義
##者
##股
##能
##自
##臺
##航
##艦
##良
##色
##艾
##花
##若
##英
##茶
##草
##菜
##華
##萬
##葉
##藤
##行
##術
##街
##衣
##西
##見
##親
##视
##言
##記
##話
##語
##记
##语
##谢
##谷
##豆
##豪
##貴
##賢
##赤
##赵
##起
##超
##越
##路
##身
##車
##軍
##輝
##迷
##送
##通
##速
##造
##遊
##道
##達
##選
##郎
##郡
##部
##都
##酒
##里
##重
##野
##金
##鍋
##钱
##長
##长
##門
##間
##阿
##陈
##限
##院
##陳
##陽
##隊
##雄
##集
##雪
##雲
##雷
##電
##青
##非
##面
##韓
##音
##風
##风
##飛
##飯
##餡
##香
##馬
##马
##高
##鬼
##魔
##鳥
##鳳
##麻
##黃
##黒
##龍
##�
##𒀭
